04
0f
27
36
4b
47
42
3c
f8
f1
24
20
fa
e4
12
16
28
f7
d9
02
43
38
12
f9
08
11
16
01
f4
f7
10
f3
0a
0c
23
3c
3d
0d
e7
e4
e5
e4
ef
db
dc
11
33
24
ec
10
28
37
04
c2
d5
e8
d4
f5
f4
13
11
15
df
c3
08
0b
1c
ff
01
e2
d4
fe
fe
fa
f3
da
aa
f4
0b
10
1f
15
00
f1
e4
fe
14
0d
08
07
d4
ed
05
02
02
21
20
02
05
0c
fb
ff
1b
17
f1
dc
10
04
02
0d
12
11
16
15
07
18
27
34
15
e6
18
0f
11
1c
29
2d
fe
fa
ff
0a
0e
28
28
fe
24
35
3a
30
19
15
01
e6
a7
93
a4
d2
e6
f5
23
19
e0
ce
cb
d2
02
ca
cb
b4
b8
d6
c7
cb
d3
ee
02
d9
81
91
18
2c
12
d8
d0
e9
f5
f4
f2
09
08
14
27
01
ea
eb
f4
f9
02
f3
06
fe
fe
fa
ff
f2
f1
f0
09
ff
00
09
fd
fc
fc
06
01
fa
07
04
fe
02
f7
f9
fc
05
fe
08
f6
08
f6
fc
0a
fd
fb
06
fa
02
fc
04
fa
fb
f9
fe
0a
06
f8
05
0a
0a
01
03
08
0a
00
fe
08
fd
08
09
03
f8
08
05
03
02
05
06
f9
f8
05
fc
f7
09
f8
fc
f9
09
ff
fb
09
0a
06
08
f7
f7
06
fe
04
0a
fe
fa
0a
fb
fa
08
00
fb
04
fb
00
f8
fd
08
02
ff
08
06
06
05
fc
f7
fa
fa
03
08
0a
08
01
07
01
05
f9
0a
05
00
fc
02
ff
f9
fa
fc
02
f9
06
fa
06
00
00
01
00
05
ff
fc
01
fa
04
01
05
fe
00
fb
fb
00
05
fc
08
fc
fe
08
fe
06
ff
06
01
fb
f9
06
03
fe
fe
fc
f9
02
f7
00
07
05
06
02
fa
05
08
04
07
f8
f7
fe
03
07
fe
fb
07
00
01
f6
ff
05
0a
01
07
01
f8
00
1c
13
fe
06
fb
13
17
21
0e
fb
e4
ee
03
25
fc
fd
f7
ff
0c
04
0f
12
11
10
f2
ed
f0
00
02
ff
09
0f
0a
fb
f4
f0
fc
13
1f
01
f2
f8
08
09
14
0b
0c
fc
f5
f7
ee
fb
1c
1e
0f
0a
0b
17
1b
10
f0
e7
fd
01
ee
f1
09
2d
1b
0c
16
17
24
fc
f2
fa
00
07
ef
ed
03
0c
27
0a
1e
16
18
e9
e9
f0
08
0b
f9
f5
fc
03
0d
0d
0b
14
f9
e2
e3
e5
f7
0c
f8
e5
f4
f8
0a
09
f4
fd
ef
db
da
f1
fc
0b
ff
ef
f4
f7
f0
f2
e8
07
00
ed
e3
e8
02
01
fe
ef
eb
e6
e1
d8
f8
08
21
0d
02
e1
f2
09
fb
e1
f1
ec
09
eb
f9
03
14
1d
0a
fe
00
06
f9
ff
01
0d
11
13
e1
f4
06
0f
15
03
17
09
01
0b
fb
02
06
0a
e2
ea
11
09
16
03
09
0c
06
ff
fc
fa
00
fc
0c
0c
ed
f8
11
23
30
22
18
fc
ed
f5
f8
0f
f8
f3
e3
f4
07
0a
1c
0a
13
0f
07
f9
e9
fd
e4
e6
dd
0d
23
13
05
03
18
00
1b
0b
f4
f6
f6
f0
12
31
25
0c
f8
fa
02
00
f8
19
1f
11
0d
0f
2c
35
fa
ef
fa
f3
f9
f0
fd
2b
2c
15
26
29
29
07
e8
f6
fe
ff
ff
ed
07
13
17
19
2a
22
26
ee
f7
f5
fc
0c
08
f2
f3
fa
0e
18
2d
0b
1b
d4
df
eb
f6
fe
05
ea
ec
04
05
09
ed
01
e8
bd
ce
e0
f2
04
0f
e4
f2
00
fb
06
de
fb
f1
cf
d2
e0
e8
fe
08
f4
f7
f0
dc
e1
ed
07
13
04
f3
d3
f2
0c
10
db
d4
da
eb
f9
ea
fd
0d
17
00
f1
f7
00
04
f9
09
08
1b
21
e0
f3
08
0d
05
05
01
18
10
fe
04
fa
12
1a
e3
f9
0c
0d
1d
0d
1e
13
11
05
11
0a
fd
03
04
12
20
2a
49
52
4b
34
f7
fd
18
13
fc
e9
0b
1c
33
03
f1
04
34
35
15
fc
14
08
18
fc
f0
f6
0d
06
07
0f
24
32
3c
09
e6
f4
eb
e6
e6
d7
e9
14
37
25
e9
08
24
32
fe
d8
d2
df
de
fe
fe
01
17
04
dc
c1
0d
01
05
fd
f6
ed
e0
02
05
f6
f0
cd
b6
ee
0b
08
0a
10
05
f5
e5
06
13
10
fa
ff
d6
f6
0e
fd
00
23
0d
01
fd
05
f7
02
1d
0f
ee
e3
15
0a
00
0e
1d
11
1c
05
fe
21
22
2d
17
e9
22
03
07
1b
2c
2f
fa
f4
ed
fa
16
29
1c
f2
1e
3b
2e
1f
13
25
06
d8
b4
97
a0
dd
eb
fd
31
0f
ee
d7
d2
d8
f3
c5
c3
aa
b9
e0
c6
df
da
fc
08
df
8c
9d
23
35
03
dc
da
e7
ef
f1
00
04
ff
28
32
f4
e8
f8
f3
ff
01
f4
f6
fb
f2
ff
f9
f2
f4
f7
03
07
f7
fc
04
fa
ff
fd
06
fa
09
05
f8
fe
ff
f6
f7
09
08
f9
00
03
06
09
07
09
f9
fe
05
f8
f6
06
08
04
07
05
01
fe
01
fc
08
09
fd
05
fd
08
f7
01
ff
07
01
02
f6
fa
0a
ff
04
f7
05
fb
ff
0a
07
f7
fb
06
fe
08
04
ff
f9
01
08
08
fb
fd
03
f7
01
03
0a
ff
0a
0a
fb
02
06
ff
fa
02
05
f8
f8
f8
f8
09
fb
ff
fd
fb
09
fc
06
fb
0a
03
fe
00
04
fa
fd
f8
f9
05
ff
fb
00
06
0a
fa
04
01
fb
02
01
06
09
05
02
f8
f7
05
fa
00
08
05
ff
02
00
01
09
fa
09
01
0a
fc
06
fa
f7
08
04
0a
04
fc
fa
09
fe
fa
f8
f9
fc
f8
0a
01
03
fb
00
07
fc
08
fd
fc
f8
f6
05
f9
fa
fc
f8
f8
f9
0a
fe
fc
ff
09
fa
04
fe
f7
07
05
08
05
02
03
14
19
fa
02
f9
0b
15
18
04
f5
d6
e6
10
2c
ff
02
0a
08
08
ff
07
09
02
0c
f5
00
fa
11
fe
fa
07
15
19
07
f1
f0
f1
0c
1d
fd
f9
07
0f
09
10
1b
0e
f4
ed
f6
f8
f7
14
18
09
0b
0e
19
25
08
e8
ec
fa
05
f2
fc
15
18
1d
02
02
1a
1a
f6
e8
03
fe
08
f5
fe
02
21
1e
04
15
1a
09
e8
f4
00
09
fe
ee
f7
fb
08
1b
0d
13
14
fd
f0
f0
eb
0b
01
f8
fb
fe
f6
08
fc
f1
01
f1
e0
eb
ed
04
0d
fe
f4
fb
ef
f1
e6
eb
05
0d
ef
e2
e5
fe
ff
fb
ed
e8
ed
e7
de
f5
12
1c
0e
f8
f1
fb
fc
f3
e9
f7
f2
0c
f6
ff
06
0c
13
0e
f2
01
09
02
01
f5
11
21
13
e8
fe
fe
15
08
08
0a
06
fc
00
f6
fc
07
07
ea
eb
fc
10
05
0d
04
05
0f
fe
f9
fa
01
06
12
01
ee
07
10
20
27
1d
1f
fb
e8
fe
03
0a
f1
ed
f0
f2
0d
19
1a
0d
07
02
04
01
ee
f7
f0
e7
ea
15
29
09
06
ff
02
00
11
07
f4
00
03
e4
04
21
2d
0a
e7
fb
03
06
04
14
22
04
10
11
1f
2e
08
ed
f5
fa
03
e3
f5
2f
1f
0a
18
1e
21
15
de
f5
f9
02
fa
f2
fc
0a
1f
0f
36
1d
25
ee
ed
eb
04
06
07
eb
f8
ff
1b
1a
25
06
0b
d4
ec
e5
01
09
0a
f0
ec
08
06
07
ea
fb
f7
cc
d3
d8
fd
08
13
e1
fd
fd
fc
f8
d3
f3
e9
d4
cf
dd
fc
07
0b
e8
f4
e7
e0
e7
e5
07
18
05
f6
e6
f8
06
09
dd
e0
dd
ef
fa
e9
fe
12
10
05
e6
ef
0d
0e
e6
f9
07
16
1b
e8
ed
03
02
0c
03
06
08
05
0a
00
fc
1c
1a
d8
f2
0a
17
20
12
18
17
0c
01
01
0d
fc
07
ff
07
03
04
f7
fe
08
f6
fc
f4
f5
06
fc
03
f9
f6
08
00
fb
fb
08
06
06
08
ff
00
ff
fe
f5
08
07
ff
fb
07
fd
fe
fb
f8
f6
08
07
03
fa
fb
04
06
0c
03
fa
fa
0c
fa
f5
fd
fd
03
f7
fc
f6
05
01
f9
fb
05
07
f8
f8
00
01
f8
02
ff
f8
f6
fe
02
03
02
06
08
fb
fb
f5
06
f4
f9
f5
fd
fa
04
f6
05
fa
00
f8
01
06
02
01
fc
f4
01
06
04
07
f9
04
05
06
f9
06
f5
f9
04
07
05
fc
f6
05
f9
06
fe
02
03
fd
fa
fc
fb
f6
02
02
f4
f9
f6
fe
f8
07
f6
fb
07
00
0a
fd
07
f7
fa
f5
08
02
fb
ff
fe
f7
f7
06
06
fe
08
fe
05
02
09
03
f8
05
f9
f6
f6
09
01
03
fa
f6
01
f6
00
fd
ff
05
f5
03
fa
fc
f9
fb
02
03
f6
00
fe
05
fe
08
07
f5
07
01
ff
fa
f9
03
fc
04
ff
fe
06
f9
fc
07
06
0a
08
f9
06
01
07
fd
06
fe
05
fb
05
06
08
fa
fa
04
f9
fa
01
0a
f9
fe
f8
ff
09
f8
07
06
01
07
05
03
01
f9
f6
07
fc
f7
fd
f9
09
08
f7
04
fc
0a
01
ff
04
f7
fc
09
09
fe
08
f7
f8
fe
f6
09
fe
fa
03
fe
06
06
f8
02
fe
05
f9
00
03
f8
03
fc
04
fc
fe
f6
ff
08
04
f8
f7
08
fb
f8
fc
05
01
fb
05
0a
02
f8
fd
f6
09
f9
00
fa
00
f9
f8
f8
04
f6
09
05
06
0a
01
fd
f6
fa
f9
f6
fc
00
00
02
f9
06
f6
04
fc
09
fb
0a
f8
f9
ff
f9
01
f9
ff
ff
fc
02
fa
06
fd
fa
fd
04
fa
f6
fe
f9
0a
fc
03
fb
00
fe
fe
09
04
fb
05
f9
08
f7
f6
0a
06
00
f8
06
fc
03
02
07
fe
0a
f8
fb
0a
f7
fd
03
04
fd
f8
09
f8
0a
01
fa
01
00
f7
09
fa
fe
fa
02
f9
09
fd
0a
00
fe
f7
07
00
f8
04
02
fa
fa
fe
05
03
fa
f9
09
02
05
f6
05
07
00
08
02
00
04
fc
ff
fe
03
01
fb
05
fa
05
01
ff
ff
02
00
09
08
0a
06
00
fc
fc
06
fd
f7
00
fe
f8
f8
ff
04
06
f9
f7
f8
00
ff
03
f7
0a
fd
f6
f9
03
fe
08
00
06
09
fc
01
fd
fb
f6
fb
05
fe
f7
03
04
02
08
f8
fc
ff
f7
04
fd
0a
fd
f9
08
0a
08
f8
fb
05
0a
07
f5
fc
ff
05
f9
04
fe
03
fe
0a
ff
fc
fe
fb
f6
07
fa
fb
fb
00
06
fd
00
fc
08
fe
07
fd
fb
fa
f9
06
f6
02
09
f8
04
03
01
0a
f9
06
f9
06
01
01
f7
01
f8
f6
04
00
fd
fe
08
00
f8
0a
fa
08
09
02
f5
fb
f6
f7
f8
fa
f6
fa
f6
f8
f9
f6
00
01
fe
0a
05
07
05
fa
03
03
f8
09
fa
ff
f6
f8
08
f8
09
05
0a
fb
f8
09
fc
ff
0a
fb
fc
06
09
00
00
07
fc
08
06
01
f9
09
fd
fb
fe
02
f6
02
fe
03
00
fa
fe
fd
09
f7
03
09
03
fa
03
04
05
01
f7
02
fe
06
09
fc
00
09
fe
02
fc
03
fc
f7
f7
05
fe
02
07
02
09
03
f6
07
f7
05
ff
f6
fe
09
fb
fb
06
02
04
f9
fc
f9
02
02
fb
fa
05
01
02
fe
f7
07
0a
09
f8
fb
f8
09
08
fb
02
08
08
fb
fc
f8
f7
fd
fd
06
08
fe
05
00
05
f7
fe
fd
08
05
04
05
f9
f8
fa
fe
fb
04
09
0a
07
04
00
fa
02
06
01
ff
ff
f7
00
02
09
04
0a
00
06
fa
03
0a
03
fa
04
f6
05
fa
07
01
03
fb
fd
f9
07
02
f9
fa
03
f8
00
f9
fd
05
fd
04
f7
06
f5
f5
f4
f5
fd
f4
00
f8
00
fe
02
fd
f6
ff
00
fe
fc
fd
ff
ff
fb
05
f5
05
f7
06
f7
f8
00
08
fd
fd
02
02
fb
ff
09
fe
f5
f5
04
f7
f5
ff
fc
09
f6
06
01
00
02
04
06
f6
08
02
ff
f9
08
f9
00
02
f6
08
fe
ff
f4
01
f6
fc
ff
f8
07
f6
00
02
f7
fd
f5
f4
06
fd
fb
f6
08
fa
06
f4
01
fa
05
fe
fa
fa
fa
07
fe
f4
fe
fe
07
f5
fe
06
ff
fe
f4
f6
fb
f5
02
01
f5
09
ff
05
fa
07
07
f5
fa
f6
fe
f7
fa
02
03
06
08
01
fc
00
08
08
f4
08
fb
fb
f5
04
01
05
f9
05
f4
06
05
f5
f6
00
03
08
03
f7
02
f6
f9
00
01
f5
fc
f6
f5
fe
fd
00
05
f4
f8
fb
f6
07
08
f4
f5
f8
fb
ff
f4
fd
f6
08
f8
00
09
f6
ff
07
fe
f6
f9
f5
f9
f7
03
06
fe
08
fa
04
f7
06
f6
06
ff
f7
09
01
f8
03
f9
f8
00
fe
f9
08
03
fb
05
06
08
ff
fd
01
ff
05
fb
05
0a
04
07
f9
04
f7
00
fe
0a
fd
09
06
00
07
0a
fa
f6
02
05
01
0a
fe
02
f8
07
fa
ff
f9
07
fa
f7
fb
00
f9
01
fe
08
05
04
fb
06
07
ff
00
fe
00
f8
05
0a
05
05
09
07
02
07
07
02
fd
fa
fd
03
f8
f6
fe
02
07
08
f8
00
f8
01
f7
f7
00
07
f6
f7
01
0a
fd
0a
0a
fb
03
06
f7
04
04
00
f6
fe
f8
00
00
fa
09
f9
07
07
0a
03
07
fc
04
09
f6
f9
03
fe
fe
fa
00
fd
0a
06
03
04
fc
fd
06
09
fe
f7
00
06
00
f6
01
fa
04
09
06
f7
02
ff
02
fb
f8
fb
00
06
f7
05
0a
f7
f9
02
fa
02
f7
ff
0a
08
02
05
09
f8
08
04
f7
05
01
f7
f9
01
00
01
07
07
02
ff
ff
08
ff
f8
fb
f4
f7
09
f6
fc
f5
04
fa
09
06
fa
fa
fd
fd
f5
00
f7
f8
02
04
f5
01
07
02
f8
f5
fd
06
ff
f5
09
f7
02
fa
01
fc
fd
fd
08
fb
fb
f7
fa
fd
f8
fb
ff
f9
01
00
00
08
f9
fe
fa
f6
fc
03
02
ff
07
07
07
06
ff
fe
08
01
09
ff
f7
f9
05
07
03
08
08
fa
02
00
fd
f7
f8
05
fa
fc
fa
fc
05
f9
03
fe
04
f9
02
01
08
07
ff
09
f8
fc
04
06
f7
fb
07
f5
03
09
fc
ff
01
05
fe
f7
00
01
05
00
06
fa
fd
02
07
04
08
03
05
02
09
08
05
f6
fd
fb
fd
06
f8
fb
fa
01
f9
01
f6
f9
05
06
fb
ff
00
f7
fc
06
ff
09
f6
f7
f6
f8
01
05
f6
f6
fb
05
06
ff
08
02
08
ff
f8
ff
02
02
fe
fe
00
fc
03
f9
fc
06
03
06
f9
fd
fb
f8
fc
ff
ff
ff
f9
ff
03
08
06
f7
f9
08
07
06
fb
09
f6
f8
01
05
f6
02
00
ff
f8
fb
00
03
05
fc
0a
04
f9
f6
07
01
ff
fd
05
fc
f8
07
fc
06
f9
fe
fa
00
ff
03
f8
f7
08
f8
04
f7
02
00
fb
00
01
00
08
fa
05
0a
f8
f8
04
fc
00
f6
06
ff
01
fc
04
00
fc
03
fc
04
f6
fc
f9
04
f9
08
03
06
f9
f7
fe
fa
fc
09
06
fd
06
f9
fa
05
05
fd
f9
02
0a
0a
09
f8
07
02
f8
01
f6
02
fa
f9
01
07
06
fa
06
04
f9
fd
fd
f7
f6
f9
0a
fd
01
f7
fe
04
00
ff
00
07
f9
f7
f6
04
fa
fb
ff
06
00
02
fd
06
fb
08
09
f7
fd
ff
fa
01
fd
09
ff
fa
fb
f6
fa
02
03
fb
00
05
01
01
f9
0a
fb
ff
fd
03
f6
01
f6
08
fc
02
01
fc
ff
0c
10
1a
3b
54
4e
3a
2f
f3
f4
1e
18
07
ea
0b
1c
26
f3
e5
14
3c
3a
09
f3
fb
00
06
fe
e9
f8
16
00
01
0f
20
3f
30
14
ef
e4
ee
dd
e5
d0
d5
19
34
24
ea
02
24
30
11
d5
d9
dc
d9
01
f1
14
13
15
d5
d0
0d
0a
1a
fe
02
e2
cb
fd
f5
03
f5
da
bd
e5
08
08
0c
07
05
f4
e0
fe
10
15
00
02
d7
fa
05
fe
fb
1d
19
11
08
05
05
0f
15
15
f6
eb
0d
0c
01
11
24
0d
17
13
fa
16
36
35
0c
f2
22
10
07
1b
28
2a
08
fc
ef
0a
16
2e
1c
f4
24
44
40
21
16
17
fd
d5
ba
8d
aa
d8
e9
f4
29
0c
e0
cf
c3
e3
f2
c9
c3
ad
b3
dd
c6
d7
e2
fd
fe
cc
95
a2
23
28
0b
e8
d8
f6
eb
fe
fb
fd
0e
12
34
fd
ea
f0
fa
05
ff
fd
01
f8
f8
fb
00
f3
f4
fb
f9
f8
01
02
f8
0a
04
fa
08
03
01
01
f9
ff
08
fb
05
07
0a
f8
03
03
fc
06
04
09
f9
03
f8
03
07
f7
08
06
ff
0a
00
f8
f9
07
f7
fc
08
05
0a
04
00
05
fb
06
fb
fd
fd
fa
00
fe
fe
07
08
fb
0a
07
fd
07
fd
0a
ff
08
09
07
04
01
f8
00
07
0a
04
fa
00
fc
00
f9
ff
00
06
fb
f8
ff
0a
05
06
f6
00
fe
02
08
0a
04
07
fd
ff
f6
f9
f7
06
05
f8
08
f6
01
f6
09
fb
f9
05
fe
07
0a
07
01
ff
f9
fa
fa
06
00
f9
09
fd
0a
0a
02
f7
03
00
fb
fa
f9
02
04
02
06
fc
fc
0a
f8
f6
0a
06
fe
03
fd
ff
01
fc
01
fc
f7
05
f8
f6
02
08
04
f9
06
fd
ff
06
04
fc
06
fd
fd
07
fe
00
0a
0a
02
08
ff
fc
0a
05
07
fb
05
09
01
07
f7
04
fd
0a
04
28
10
03
05
fc
15
12
11
16
f4
e7
e7
09
22
f6
fc
fa
02
11
03
02
07
08
0e
02
f3
f7
0e
04
fc
f7
08
1b
07
fd
f1
fc
06
11
fd
03
05
fb
fe
16
12
06
f8
ea
fb
f3
f4
11
20
06
fb
0b
0d
1f
0d
f2
f2
fb
02
f7
ed
0a
1e
18
03
0b
1c
27
06
f4
f5
03
f8
fd
ee
fa
0e
14
04
19
10
15
ea
f2
f1
05
fb
fc
e5
f1
07
16
11
13
07
07
e0
e5
eb
fe
f9
f9
f6
f0
01
fd
04
f7
fe
fd
e0
e1
e8
ff
0e
f9
f3
f3
f5
e4
e4
ed
04
09
f0
dd
dc
f9
0a
00
e7
ef
e2
e6
de
f4
17
17
0c
f7
ef
f8
10
02
e5
ea
f8
f6
f2
f3
07
0c
0e
10
fa
fd
0b
05
f4
0a
01
22
20
e4
f0
0b
0e
14
0d
06
0f
08
f9
03
03
fe
15
e8
fa
fe
06
14
0f
02
15
07
fb
fd
fe
06
f7
14
13
f6
06
10
1b
34
1b
18
ff
ea
fb
f6
0c
f0
f6
f5
f8
fe
1d
1f
15
13
07
16
fa
df
07
f2
e4
e0
18
28
0b
fb
01
0a
04
17
fd
fb
01
f5
f6
0b
30
34
09
f5
fc
08
fa
fa
1c
14
11
00
1c
33
29
01
df
fe
f0
06
f3
ef
26
21
11
22
22
23
18
e8
f3
0a
f7
f6
f0
f9
0f
28
21
2f
17
1c
fd
ee
eb
fc
fd
fe
e2
f7
0c
14
0f
2d
09
10
d2
ec
ed
fc
fd
06
e4
f3
fd
0c
1b
f0
00
ef
be
c4
dc
ef
0b
02
ef
ff
fc
03
0b
d1
02
f0
de
cc
e0
f4
0a
0b
f2
f7
ef
e2
ec
df
08
21
10
f6
e0
f7
fe
17
e2
d9
d7
e0
00
ee
07
0b
08
0f
f8
ff
0c
0d
f7
09
09
20
1d
e2
f4
00
15
16
0b
13
09
11
f9
f7
09
18
18
d5
f8
0c
1e
13
1b
14
13
13
fe
05
06
fb
07
0b
1a
1a
31
48
47
4c
38
fb
fc
1f
1d
f8
f1
06
12
26
01
e8
07
3a
2d
08
ee
fe
13
06
f7
eb
fb
0e
f6
0f
03
1b
34
33
0f
f1
dd
e3
f0
e8
d1
e2
1a
31
25
ec
04
2e
2c
12
c3
d7
ec
d9
f9
f2
07
14
03
d0
c2
11
09
13
fb
00
e9
d6
02
fe
06
eb
e2
b1
f4
0d
09
17
1a
f9
ee
e9
02
0b
16
0e
0e
d3
f9
11
fe
05
19
1d
0a
06
fd
01
01
1e
13
ef
e5
0e
0a
fc
15
15
13
13
06
05
17
29
28
0f
e7
23
0c
05
1b
2d
31
fc
02
00
05
1b
31
1e
f3
26
39
3a
2c
1e
24
fa
e6
ab
9b
a9
cb
e3
01
32
17
e7
cf
c9
df
fc
bf
c3
a8
ba
cf
c2
c8
d9
ee
05
c9
92
a1
25
2f
0d
d7
d3
ee
e8
01
00
05
0b
27
28
fd
e4
f0
f1
03
f6
f7
05
f7
fb
ed
f1
ff
fa
f7
fb
08
0a
02
f9
00
05
03
09
09
05
f9
ff
02
fd
03
07
fa
fd
f8
02
06
09
01
07
f6
00
fe
fb
0a
07
f7
f6
fb
04
05
05
08
f9
01
fb
fb
00
ff
f8
00
05
09
fd
07
fe
f8
09
fe
fe
fe
09
fc
fd
01
f9
04
09
04
fd
fe
f6
f8
fd
06
0a
ff
ff
07
fe
f9
06
fb
f9
00
f9
f8
fa
ff
03
fc
f6
fc
0a
fe
f8
fc
09
02
ff
0a
01
02
0a
ff
fe
08
03
f9
07
fc
f7
09
f8
fc
fe
00
ff
08
08
f7
f6
f6
09
ff
fb
f9
01
03
06
08
09
f9
ff
f9
fc
00
06
fb
fa
fd
04
00
08
f7
04
08
07
f7
f9
00
00
06
09
ff
fd
06
f9
fb
01
fe
06
fe
01
03
ff
fd
07
06
fe
f9
fd
07
06
fd
06
ff
ff
fb
00
fe
03
f6
ff
f8
f6
f6
ff
02
01
02
fc
f9
fe
f8
ff
02
01
f6
0a
09
19
0a
03
ff
ff
14
1a
11
0a
f9
e0
e9
0e
22
03
04
f8
0d
0e
07
11
05
07
12
ff
f0
ef
10
ff
f6
fd
18
14
fe
f3
f1
01
0f
14
00
f1
fc
06
fc
14
1e
09
fa
f0
f7
ea
f5
1d
1e
15
fb
07
0e
1b
0f
e4
ef
fc
04
fa
f1
0e
28
14
ff
03
13
24
07
f1
f1
02
07
f8
e7
03
19
1f
14
1d
11
1d
e2
e7
f8
01
0a
fb
ed
01
fb
16
0f
15
18
03
dd
ef
f5
00
09
fa
ed
f5
f9
fd
02
f6
f9
eb
e1
db
e8
08
0c
00
f3
f6
e7
f5
e6
e9
01
09
eb
e2
e7
ef
fb
ff
e2
ed
d9
e7
d2
f9
13
11
14
ff
e4
f5
0e
f9
e6
f0
f8
fb
fe
f9
0b
0b
16
09
01
08
12
00
fe
08
0a
18
16
e4
ff
00
0a
15
02
03
0f
0e
f8
02
f8
0a
12
e5
fe
04
0a
11
0b
06
04
05
07
08
fb
08
f8
0b
0b
e6
0b
0f
25
2d
17
1f
f3
f4
06
f0
16
ea
f0
f0
f1
fb
0d
27
16
10
11
12
f5
ea
05
ea
e7
f2
0a
2d
1b
0c
07
13
04
0c
02
ef
fb
f8
e9
08
22
2b
0c
e9
f4
02
ff
f6
1c
24
12
00
0c
35
25
f8
dd
f7
f5
fb
f1
f2
30
2c
16
25
23
2d
10
e0
e7
07
02
00
ed
05
07
28
1d
36
1e
16
ef
e7
ef
09
02
0b
e4
f5
f9
1a
15
2c
1a
1c
c8
e3
f4
03
05
fc
df
fe
fe
0a
0d
f2
03
f7
c1
cf
e4
f5
04
0d
f1
f2
06
f9
06
ce
03
f6
d8
d3
db
ea
fc
19
e2
f6
e0
d9
de
e5
09
16
02
f3
da
f7
f9
07
db
e8
e7
e9
f2
ef
04
14
0b
06
f2
ff
fd
04
f7
08
10
1c
27
e2
fd
06
02
13
12
0c
06
16
01
fd
08
1f
1b
d2
f4
03
0c
14
17
1c
18
19
fb
00
fe
fa
fa
fa
0e
21
34
54
51
4a
2d
f7
f2
2a
1e
fa
e3
0a
15
2d
03
e4
0c
45
3b
10
f5
f9
0b
12
ff
f4
fc
08
fc
ff
14
20
38
3d
0e
e5
eb
e2
de
e2
d7
d3
14
2a
27
eb
ff
2f
3c
07
c5
d1
d8
d3
f8
f0
0f
25
16
ce
c9
12
0b
10
f4
fd
df
d5
fa
fd
fe
ef
d5
ba
f0
fd
05
1e
19
f2
e3
d9
04
11
12
00
fe
e1
e9
0a
fc
f8
25
18
12
0d
fb
fe
0a
19
13
e8
da
10
11
01
1f
17
1f
11
04
01
20
33
2a
19
e8
24
08
02
25
2a
28
04
05
f6
f9
11
30
2f
fa
20
43
45
29
25
29
0a
de
a1
81
9e
cb
f4
ff
22
1e
da
c3
d2
e1
fd
ca
c3
b0
a5
da
c8
cb
d4
f8
03
cc
82
93
20
2b
0c
dd
d2
f5
ec
f6
ef
fd
0f
1e
33
03
e8
f8
fb
03
f4
03
ff
fe
ef
fc
fc
ed
fd
00
ff
fd
ff
f7
f7
ff
fc
09
06
fd
f6
03
ff
fa
09
07
fc
09
f7
f7
05
06
fe
fe
f6
03
00
f8
f8
06
f7
02
0a
fd
06
05
fe
fa
fa
f6
02
02
fd
06
ff
03
0a
0a
08
fc
00
fd
03
06
02
fd
02
f8
f7
fe
ff
fe
05
03
03
03
ff
02
f9
f9
01
07
00
0a
08
f6
fb
04
ff
04
fa
06
fa
01
f8
fd
07
05
f8
06
fe
f8
09
04
01
03
05
f7
06
08
01
fd
01
01
02
f9
07
01
01
fc
09
f8
fc
f9
08
fc
00
ff
08
f7
fb
f6
fe
f7
00
04
01
01
fe
f8
fe
09
02
02
fd
07
07
02
07
01
00
03
f6
07
fb
fb
ff
f8
f9
08
fe
04
02
0a
fb
fb
0a
f9
f6
fe
06
05
f9
f8
03
f9
06
fe
fc
fe
09
fa
f8
04
04
fe
06
fd
fc
f8
fb
fa
03
fe
08
fb
06
08
fe
fa
05
f6
07
08
ff
fa
20
1c
04
ff
07
20
1e
13
12
f2
e5
e0
10
28
f6
f9
fe
03
08
06
11
0f
0c
08
f3
ec
f2
14
fe
f6
fd
11
13
07
f9
ef
f8
03
13
f8
f8
f8
ff
0f
1c
16
0a
fd
f3
fa
f2
f3
23
13
0c
f8
ff
1f
24
17
ed
f6
fc
fe
ef
f1
0e
1d
16
ff
15
1e
29
04
e9
ef
09
02
f3
f5
fb
16
27
0d
0a
22
18
e8
f6
f9
06
07
ef
e8
ff
03
1c
0f
03
15
02
d7
e7
e6
05
08
fb
f5
ed
f9
fe
07
fb
fd
e8
dd
e7
e6
03
fe
f3
e4
e6
ea
e7
f0
f6
07
03
dd
da
d6
03
07
f9
db
e9
d5
e3
d0
f6
14
0e
13
03
ef
04
03
fa
ee
f0
ec
0b
f3
f2
09
1b
0d
0c
f9
01
10
02
ef
00
0f
15
26
e1
fd
0d
13
15
09
0a
16
08
0b
0b
f7
0e
0e
da
ee
05
19
16
05
05
04
04
03
fb
f7
f9
01
10
0b
f5
04
11
24
29
27
12
ec
f1
f8
fa
0e
f0
f7
e3
eb
fd
09
19
1e
19
15
18
04
e4
ff
e8
ee
e9
06
27
0a
0b
06
10
fe
19
08
f7
f6
fc
e6
08
26
22
0d
e3
f8
07
ff
ff
18
1b
0c
12
10
2c
34
ff
dd
fc
ed
f7
e5
f9
3a
20
0d
28
2e
2c
08
e4
ed
f9
09
f9
f0
fd
1b
21
13
39
2a
21
f8
ec
ef
fc
f9
0a
ec
f3
fa
1e
11
21
11
12
d2
df
e6
f6
fd
01
ed
f7
09
03
0c
f0
f6
e7
bf
d4
d5
ff
08
0f
ed
fc
08
fc
00
d7
fa
e7
d8
dd
df
ee
04
16
f0
ef
e8
de
ec
e6
0c
1a
13
ef
de
f9
fa
11
d3
d9
e0
e9
fa
e6
08
0e
17
03
f8
fa
07
fd
f2
09
02
26
2a
e1
ed
06
08
13
09
13
07
0e
05
fa
ff
12
23
df
e6
0f
20
20
1c
12
17
1e
0f
03
07
03
09
fa
fd
02
fd
f9
07
fa
05
fc
f4
f7
01
06
fd
05
00
03
09
05
06
f8
f7
07
08
04
02
fc
02
f9
fe
08
f8
f5
fd
04
f5
05
ff
ff
05
04
fe
f4
07
fb
f8
02
05
00
f8
f5
03
02
04
09
f9
01
09
fe
fa
f6
fe
f9
f7
f4
03
fd
03
04
f4
fa
08
fc
05
f5
08
03
f7
01
05
04
00
fa
fb
f7
09
00
01
f8
f6
fd
04
06
fd
03
fc
fb
09
01
09
f4
ff
fb
06
03
00
05
f8
fb
04
f8
01
02
f6
f8
f6
f5
fb
02
02
04
00
f8
f4
07
00
06
f4
f9
fe
07
f6
f9
f6
04
ff
fa
05
f6
fd
f9
fc
fe
fe
09
f5
fa
fd
fa
08
04
06
06
fe
05
fd
06
00
02
03
fa
07
07
fc
fb
f5
04
f6
f5
07
01
07
f5
f8
fb
05
f6
f5
fb
f9
08
04
f7
fa
fe
f8
f6
08
f7
04
fb
f6
f9
f9
f7
f8
00
fa
09
f6
fe
07
f9
fe
f7
f6
05
03
01
08
00
f7
f6
02
fa
0a
ff
09
fe
fb
f6
0a
f7
07
fc
f8
fc
05
08
f7
f8
04
05
f9
04
ff
f7
06
f7
ff
fe
fb
fe
f7
09
f8
06
00
00
ff
fc
fe
08
fb
05
f8
fb
07
04
f6
f9
07
ff
0a
f6
03
f6
04
fc
ff
ff
01
f9
fa
05
fa
03
ff
07
fd
07
00
fa
02
fa
03
fb
01
fe
fd
f7
fc
09
06
fc
01
03
06
07
fa
fe
09
01
fa
fb
fb
f6
f9
0a
ff
07
f6
05
04
f6
fd
03
f8
04
06
f6
fc
07
ff
fa
03
f7
03
fa
04
fa
fd
fb
05
f6
06
05
f9
07
08
f9
01
03
ff
08
fd
fc
03
06
08
f6
fd
fb
fc
fd
fa
fa
fa
f9
04
06
fb
0a
04
f8
05
01
09
ff
fc
08
f6
04
f7
fd
ff
f6
fa
fc
ff
02
f9
09
02
01
02
f9
00
f7
0a
fc
f6
01
f8
f7
f9
fe
04
f6
fe
fe
fb
04
07
01
fc
03
fb
ff
06
fe
0a
0a
03
ff
fd
04
02
f7
f7
00
03
07
07
03
08
08
f8
0a
fb
f9
01
f9
01
00
03
fa
05
08
01
05
fa
04
fa
fc
fe
00
09
02
0a
02
fd
fd
ff
f9
04
09
06
06
0a
01
ff
fc
f7
f9
ff
f9
f9
02
fa
f7
f9
04
01
f6
f8
04
0a
04
05
00
04
05
fa
05
fd
04
f6
fa
fa
fc
0a
fb
03
ff
02
fb
fa
f7
01
f6
f6
09
04
fe
fb
09
00
f7
07
0a
02
08
f8
00
0a
f6
f6
01
03
03
fd
09
08
f6
f6
09
fc
02
04
02
fb
f9
f8
04
ff
fa
f8
06
01
f6
ff
fd
00
03
04
f6
02
05
fe
08
0a
03
0a
04
f9
07
fc
f8
f7
01
09
fc
02
03
06
09
06
fc
00
f6
f8
fa
06
02
00
07
ff
08
0a
f8
08
07
ff
03
f9
fd
fa
f9
fe
f6
fe
07
fa
fd
00
fb
01
f6
03
0a
01
0a
f7
fb
fd
09
f6
fe
f7
02
f7
f7
f9
fc
07
02
f7
0a
00
03
fb
fb
f8
f8
fb
06
fc
f7
03
fd
f8
08
f6
f6
06
06
fc
07
f9
fb
fe
fc
07
f6
08
06
fa
fa
02
ff
f7
09
08
08
05
f9
fa
fc
03
06
00
f6
f9
fb
f9
05
00
f9
fa
f8
f9
04
fb
f7
01
ff
f7
03
01
01
05
fb
f7
07
09
0a
06
0a
03
f7
03
f8
f6
04
fa
f8
0a
03
04
fd
04
00
fe
fe
08
f9
fd
08
00
05
fc
07
f9
fa
f7
f8
07
07
06
05
07
06
06
fb
08
07
03
fe
09
ff
f6
fc
00
05
03
02
09
07
fa
fc
ff
ff
f8
fd
08
f6
02
02
fd
fc
fb
f6
f7
06
00
00
fe
f6
fe
f6
05
fc
fc
04
f9
f9
fa
fe
f9
f6
05
06
fc
f8
07
fa
f8
f7
03
02
0a
fc
f9
08
05
f5
f4
02
f9
00
fe
fb
07
02
01
f6
fb
03
04
ff
f4
f9
09
07
04
f8
f9
02
f5
fd
02
02
03
ff
05
f4
f9
fb
04
f6
06
f8
fb
06
08
01
fc
06
fe
05
02
fe
08
03
08
08
00
f9
fb
fd
fb
ff
08
05
01
04
f8
02
07
02
fe
07
f6
04
fc
f5
04
fc
fc
f9
fb
fd
f4
03
00
02
09
fc
f8
f7
fd
fc
02
ff
02
f9
f5
ff
00
f9
fb
fc
f5
08
06
f7
f4
07
07
f5
00
f8
f7
f7
ff
08
03
f5
04
08
06
08
f8
f9
04
f6
fb
06
01
fb
02
f9
f9
01
f9
06
03
05
06
00
fa
f5
fb
f5
05
ff
fa
fe
06
fa
00
ff
fd
fc
02
fb
f6
01
f8
f9
ff
03
fb
f8
03
f8
00
01
fe
fc
fd
f8
05
fd
fa
f9
03
f8
03
fe
f5
05
02
03
fa
f5
03
f6
03
07
fd
f6
06
f4
fb
f6
03
08
f8
fa
08
05
07
f8
0a
fc
fa
fd
01
06
fd
f9
02
f6
f8
02
09
fa
06
f9
fc
0a
03
fc
fb
02
07
08
01
fb
05
f7
00
f6
fe
00
09
02
f9
05
00
f9
f7
02
fa
fc
fb
f8
f9
fe
00
07
f7
09
0a
f6
07
09
f8
05
04
05
fc
fb
00
fd
05
f8
09
fd
06
fd
fe
02
f7
05
09
f8
04
f6
00
fb
f7
05
07
01
04
fa
07
f8
fd
fc
fb
09
08
05
fc
fa
fd
fc
01
05
0a
07
f7
09
f6
01
01
fe
fd
fb
06
f9
02
04
08
00
09
f6
fa
f7
00
fa
07
fb
01
09
f6
04
f7
05
fd
f7
02
01
04
06
ff
fb
0a
fd
09
07
f6
fd
01
f8
02
fc
fb
08
04
0a
fe
fd
f9
01
08
ff
fc
07
00
01
0a
0a
0a
f7
02
09
09
f7
08
fb
fb
fa
fa
fe
00
fb
07
fa
09
f7
03
fa
fa
02
fe
f9
ff
f8
fa
06
01
fd
08
01
08
04
01
fc
fb
09
02
09
06
ff
f6
04
fe
02
fc
08
0a
fa
fe
f8
05
f8
f8
f8
f8
08
fb
06
fd
fd
fd
f8
03
fc
03
f7
02
09
fd
02
f6
fc
09
04
04
05
fe
fc
0a
fc
ff
f8
08
fd
fc
f9
02
f8
09
08
f8
f6
03
fa
f6
07
fd
02
01
f9
fb
04
f7
ff
ff
fa
0a
f7
f7
f8
06
f7
06
0a
0a
0a
02
f7
03
04
ff
f7
08
02
07
ff
f7
09
f6
f9
0a
fd
06
06
ff
fe
05
fe
04
fd
fa
f9
f6
fd
fb
03
00
f9
f8
fe
04
01
01
fa
fb
ff
04
f6
04
06
f6
04
02
04
fa
07
fa
fb
03
fe
07
ff
f8
f7
01
f8
09
09
06
f8
fe
08
02
01
ff
fa
fd
04
fc
fd
05
fb
fe
09
01
05
fb
05
fa
0a
fd
f7
fc
06
08
01
07
fd
ff
08
00
02
06
01
fa
ff
fe
fd
0a
09
f7
fc
fd
06
fe
fe
fd
f9
f7
f8
02
03
fe
08
fe
08
fe
fa
01
f6
04
02
05
05
09
f7
f6
01
fb
00
09
01
01
f7
00
f8
fd
07
ff
04
04
07
03
f7
ff
01
fc
f8
f9
03
fc
ff
03
05
05
05
09
02
fb
05
ff
0a
f8
fa
07
f9
06
f9
03
09
04
fa
04
00
fe
f6
f9
fc
08
f9
f6
f8
03
f7
f6
00
f6
02
ff
08
fc
f6
fa
ff
fc
0a
f8
f6
05
fd
07
02
04
08
ff
fc
fc
fd
f7
09
05
fc
08
04
03
06
00
ff
08
03
07
06
f9
fd
08
fe
fb
fb
f6
06
06
fa
f6
02
01
07
02
fe
06
07
05
07
f5
04
06
06
fc
03
f7
08
01
07
03
fb
06
07
f9
01
fa
f9
04
f7
04
f8
00
fc
05
0a
f8
fd
fe
f7
f7
fb
fe
09
03
09
f8
fa
01
f8
05
00
f6
f6
01
02
fe
fb
05
ff
f9
07
fc
fb
fd
fc
ff
fc
1a
1e
3b
4f
52
3c
37
02
fe
1a
1d
ff
e6
08
18
28
07
df
15
3e
2a
17
ed
ff
05
0e
ef
e6
ec
08
fb
0c
00
1f
45
36
0e
e0
ec
e7
e9
e0
d6
e4
0a
28
27
f7
ff
29
2e
0a
cc
da
dd
d4
00
fd
07
1e
03
db
cb
fd
08
16
02
01
dd
dc
fa
fd
f6
e9
d4
bc
e3
0c
11
11
15
f6
e1
d5
02
07
0d
0a
08
d1
f5
0b
07
05
15
11
0d
03
00
fe
08
15
1d
e9
eb
0f
09
f1
1e
13
0c
19
06
0c
1b
27
25
0d
f3
1a
06
13
26
32
2e
0c
00
fb
06
1b
2a
23
f2
21
46
3f
30
21
25
07
dd
a6
97
9d
cc
f4
02
2f
13
df
d6
d3
d8
f2
c5
c4
aa
ae
d8
d4
d0
e2
f7
fe
d9
96
97
24
37
02
e2
d2
f4
ea
f9
f6
f8
07
19
2a
fc
ef
ea
fd
f7
02
ff
04
f8
fb
f4
ee
ed
fe
f7
06
f7
08
06
05
07
f9
01
f7
ff
08
05
06
fa
f7
fd
08
08
0a
05
ff
f6
ff
06
04
fd
fb
06
01
01
fd
04
fd
06
02
fd
ff
fb
08
fd
09
f6
07
04
09
fc
f9
04
f8
08
01
07
07
fe
fc
fd
fa
03
02
f9
02
0a
08
06
01
05
05
fc
fd
00
05
f7
02
07
03
f8
fa
f7
f8
f8
ff
fc
f6
09
03
f9
fa
ff
07
fd
fc
07
ff
fc
07
f8
03
f7
00
fe
f9
fa
07
08
02
04
06
fe
ff
09
06
fc
02
03
fc
06
fc
04
06
ff
f8
f7
ff
06
09
06
01
ff
01
fc
fe
06
f7
f9
fd
f9
f8
05
05
06
f9
03
06
02
fb
fb
06
03
03
f8
f7
08
01
09
f6
fb
f6
0a
02
04
08
01
02
f8
01
07
fe
f9
fb
00
07
01
fa
01
fd
01
07
f7
fd
fa
09
f7
ff
f7
f9
fc
02
f7
ff
fa
07
f9
f7
ff
f7
fc
21
0a
fd
02
0a
22
24
21
0f
f2
dd
e8
06
1c
08
fa
06
07
0c
0d
0e
04
12
06
01
ed
fa
00
f6
05
06
09
0a
fa
f4
f2
fa
0f
1a
01
fb
f5
09
fc
0d
12
00
f6
f9
f5
f0
f5
1f
14
17
03
fc
13
27
1f
e7
e5
f5
01
fc
ef
14
1e
13
04
12
23
23
fd
ef
fc
f6
fc
fe
ed
f8
0e
18
08
13
10
20
ec
f8
f0
08
05
ed
f6
fe
fb
1d
08
09
0d
f8
eb
e3
e8
0b
f8
f1
f2
fb
f3
fd
fb
fd
02
ed
da
d7
ec
fa
07
02
f5
e4
f3
f5
f6
f5
07
fa
e0
d9
de
ff
10
02
e2
e8
dc
da
d9
f4
0f
1b
0f
01
ea
f2
08
01
dc
ec
fa
f9
fa
ef
0b
14
16
04
00
fc
06
06
f1
07
0e
23
16
ec
01
0b
0d
19
0e
0f
0a
03
0c
01
ff
06
06
e6
f6
09
0d
12
11
10
14
0c
09
01
f9
06
00
0d
0b
f2
01
19
29
2b
1a
11
fb
f1
ff
f4
12
e8
fb
e4
ea
05
16
1b
0e
19
0d
17
fb
e6
04
e3
ec
e0
09
27
19
ff
06
0f
fc
15
08
f1
f6
07
e6
0e
32
25
fb
e9
f4
0e
ff
05
19
1b
0f
0f
11
2f
27
0b
dd
f2
f8
fa
e3
fd
27
27
1b
12
30
2f
0e
e3
eb
fb
06
01
f2
0b
10
1f
0d
27
1b
1a
fb
ec
f3
08
ff
01
e0
02
f8
1d
10
23
10
0e
cf
ec
f4
02
fd
ff
ed
eb
f8
fc
1b
fd
fc
ee
c6
cf
e2
fb
04
06
eb
fc
fd
fa
f9
cf
f2
f2
d0
d9
d9
f6
fc
1b
e2
f5
e5
e2
e4
dc
0b
18
16
f6
e4
eb
0a
0d
e0
e1
e7
ed
f7
f7
0b
0b
0b
0d
ed
f4
02
0b
e8
07
0b
22
1e
e5
fc
fb
0c
0f
01
13
04
10
ff
09
0a
0c
18
e3
f0
11
0e
17
08
0d
0f
12
08
fc
01
01
0b
fe
0d
1d
34
4b
47
40
38
f4
fe
1a
1e
fd
e2
0d
1c
28
f9
e5
12
3f
38
0c
f0
06
02
0b
fa
f3
f3
12
f3
09
02
14
3c
3a
0d
ee
e5
ea
e6
e2
e2
d8
15
34
21
fa
0b
2e
35
01
d3
dd
e9
e1
01
f8
15
14
0d
d6
d1
0c
03
14
fa
05
dc
cb
07
fa
fe
f9
d1
b3
e9
0a
04
1e
11
fe
e6
de
fa
09
0a
fa
02
e2
ec
0a
0b
f7
1f
14
11
00
0b
ff
fd
17
13
e9
ea
17
05
ef
16
11
12
19
0f
05
1d
26
29
0f
df
13
0d
0c
1c
30
20
05
03
fd
0b
17
23
20
f4
1e
37
2d
22
12
27
02
e8
b9
a1
a1
d0
e9
f0
27
19
ec
ce
d2
df
fb
cd
c6
b9
b0
de
d4
da
e4
f6
0f
c9
8f
98
25
3a
06
e4
d8
ed
f7
fb
f4
02
0f
13
28
f1
e4
fb
00
f3
f4
fc
fa
04
f7
ff
f0
f3
f4
f1
00
fe
fb
f8
00
0a
04
f8
fb
07
fc
ff
fb
05
f9
f6
f8
f7
01
02
fd
04
01
03
05
02
0a
08
fa
08
ff
ff
01
f7
07
07
0a
02
fd
fe
fd
f7
04
02
fd
fa
fe
03
08
04
08
08
fb
00
f7
fa
04
04
05
09
04
fb
fe
01
05
fb
fc
04
04
0a
09
fb
04
fa
00
ff
02
09
f8
0a
07
fb
fd
fe
07
fd
04
fc
08
fe
0a
f8
fd
07
03
fb
f7
f8
f7
fa
fa
fd
09
fd
fa
05
fa
fb
fe
ff
fa
f8
f6
fc
05
01
08
02
f8
01
fd
06
03
0a
f7
fb
f7
01
f9
fc
0a
fc
05
07
08
09
06
01
09
0a
f9
02
07
f9
04
07
00
fd
ff
09
f8
04
fa
07
fc
02
07
ff
fe
09
0a
06
00
00
f9
07
05
08
f9
03
02
fd
ff
02
fd
0a
f7
fe
fb
08
fc
fe
0a
f7
fd
09
07
fd
fe
fb
02
03
07
05
05
fe
17
1a
02
f6
04
23
1a
10
17
ff
d9
dd
fe
26
fc
f3
fe
01
05
07
06
03
0a
05
fa
eb
f8
11
f9
fa
fc
0e
09
06
f2
f5
f7
04
12
07
00
fa
07
ff
12
0c
04
f9
f9
fc
f7
f9
25
11
0c
fe
0b
16
2e
0d
ef
e5
fd
f9
ef
f0
0b
2e
25
03
0f
1c
20
f6
e1
f6
fb
0a
f2
f3
fc
1f
21
0e
17
17
13
e7
e5
f2
fb
0b
ff
e8
f8
fa
18
11
08
09
fe
eb
ee
e9
00
fa
01
f3
ee
fd
01
f9
ec
09
eb
e6
dd
ee
03
0c
f5
f2
f1
ee
eb
ed
f7
0e
fb
e5
dd
dd
fe
0f
01
e2
ee
eb
e0
e5
f8
0b
19
0d
fc
e6
f3
fe
f5
eb
e9
ea
07
eb
f8
11
0b
12
15
04
0b
09
08
fc
01
11
1b
21
e2
fc
fd
11
13
0e
12
09
10
f8
09
05
04
0d
e8
eb
0d
12
19
08
0c
0d
11
fa
0a
06
ff
f6
15
0f
eb
03
11
1a
36
21
17
fb
fc
03
00
06
ec
02
ee
f7
fe
0e
1e
18
0e
17
09
ff
f2
fb
ed
e6
eb
09
1c
0f
09
03
08
02
12
10
f5
01
08
e6
13
2b
32
04
f1
f2
11
fc
09
0c
1f
0c
0d
09
34
36
06
f1
fd
f8
09
ec
fb
28
24
0d
15
1e
22
13
e1
f3
05
fe
07
e7
fb
1b
24
1b
26
28
19
f6
ec
f9
fc
fb
f8
e2
f6
02
12
0e
29
1c
13
dc
e1
f4
f8
fc
ff
e6
ee
08
fc
11
ef
fb
f2
c4
cb
e1
f4
fa
09
eb
fd
f7
f1
fb
dd
f3
f6
da
dc
d5
f9
00
10
f3
f3
e4
e2
e9
e5
0a
1b
0f
eb
d5
ed
06
0e
e1
e0
e5
e9
f1
eb
fc
0f
0a
fe
e7
f0
08
00
fa
fd
0d
15
2e
e9
f6
04
0e
0a
0a
03
13
19
0b
fe
01
1d
11
df
f3
15
13
22
11
1e
0b
0d
04
fc
04
fa
07
1c
fd
00
ec
d4
cc
ca
d7
19
1a
07
00
0e
23
12
03
05
18
2c
05
de
d6
01
21
09
19
16
17
2e
1e
0a
0f
13
10
01
d7
e7
10
23
2f
2c
30
32
38
24
00
df
f0
23
09
eb
df
0b
4a
31
36
32
11
18
08
f1
fd
44
53
0a
01
fb
18
10
34
3e
13
15
15
26
42
56
2e
0f
17
f3
08
1a
2d
32
17
07
07
0e
15
43
2e
06
0b
16
ef
fa
0e
0e
0d
1b
06
f7
fe
26
3b
09
0a
16
ff
fb
00
0b
07
0e
fb
e9
df
02
23
01
0f
01
e7
e9
f8
15
22
14
18
06
de
f3
1e
f9
d3
d0
e2
fe
fa
0b
2d
64
70
61
3b
24
17
ea
01
2e
46
38
36
1a
44
4e
5d
59
30
41
41
2e
17
03
3d
7c
69
f0
e5
07
2d
3f
21
23
16
17
09
0b
02
f4
1d
26
23
26
17
1c
1c
21
15
1f
16
1d
26
23
28
f9
05
ff
0a
09
09
f9
0a
f9
fb
06
00
05
09
ff
03
00
07
05
01
f8
03
06
01
05
03
fb
fb
fe
f7
00
fd
f7
01
02
04
00
fc
fe
f8
00
06
00
01
09
09
09
09
06
00
f6
01
06
00
06
f8
00
0a
f6
fe
05
f6
fc
fb
07
fe
00
08
02
fc
05
fc
09
fd
09
fd
06
09
fc
ff
fb
05
fc
08
f9
fc
fe
09
06
ff
05
f7
ff
09
fe
fa
fb
08
02
03
fb
05
00
0a
07
f7
09
f9
fd
02
f8
ff
fb
fd
00
fe
04
fd
01
00
fd
f6
05
f7
01
06
0a
fb
09
fa
fa
02
fc
f9
03
09
06
04
06
09
fb
08
03
07
f6
02
ff
00
f8
ff
fe
fc
09
f7
01
05
02
07
01
07
05
f9
f7
fb
fa
f8
02
f8
f8
fc
f6
f9
fe
01
04
09
fe
fa
f9
f8
07
09
01
03
03
07
06
07
04
01
fd
06
03
06
0a
08
04
0d
0d
12
16
0b
f8
07
10
1d
29
22
19
f8
10
1d
0e
06
17
0f
13
18
0e
0f
18
25
1b
10
0f
14
0d
0b
0f
19
26
1d
21
11
0a
0c
17
12
19
11
0b
fa
13
1f
20
2b
2c
13
fa
02
11
13
18
07
e6
04
2d
20
16
1c
1d
26
14
f0
ff
19
11
fd
f8
16
1e
21
1d
25
22
27
19
09
f7
06
0b
f2
0c
21
21
24
0f
23
24
2b
1d
1a
07
0c
0f
fe
18
2c
32
27
16
21
26
2b
2a
22
21
12
25
20
1e
37
39
2d
23
1e
1e
20
20
29
23
37
2b
15
1e
24
2f
26
25
1b
27
2a
33
24
3c
42
25
03
fd
0d
25
33
2a
1a
1e
27
29
21
10
26
15
11
0a
04
0a
19
23
11
1e
21
1e
09
05
04
26
1e
0d
09
08
21
12
15
13
21
25
16
0f
09
2e
20
1b
16
13
10
10
1c
12
15
19
25
1f
13
00
fe
22
14
ef
e7
e4
e3
fc
1f
1f
09
19
05
25
1a
20
0d
00
00
ed
f6
08
fa
05
16
1e
17
26
1d
25
00
e0
f5
11
03
fd
0f
f3
07
1a
0f
06
27
f8
dc
d8
13
25
1c
06
14
17
03
e5
0c
05
fb
d5
e0
06
1f
1b
20
15
2f
14
de
e5
f8
ef
e2
e2
ff
27
1a
14
18
1f
2c
10
06
f6
01
e3
ef
e8
1c
14
15
17
1a
17
21
11
1e
fe
01
e5
fa
fe
39
30
2d
0d
0f
0d
2e
27
13
19
fc
0f
05
20
50
3b
36
19
12
0c
32
1b
15
23
20
2b
10
26
30
30
32
1e
10
fc
2a
27
2d
37
2f
32
01
04
06
21
34
25
11
01
2f
3a
38
30
1b
2a
15
05
03
07
1f
11
16
15
25
08
0c
f5
f3
1d
23
18
11
0f
07
12
0d
08
07
0e
07
ff
09
32
1b
14
fe
03
03
fd
06
07
14
11
1c
08
0d
f9
13
21
30
49
44
3e
28
ff
fd
1a
1b
0a
ef
00
12
29
fe
ed
13
31
2b
11
f9
02
11
17
f7
f4
eb
0d
f4
0f
0e
24
38
37
10
e5
e5
ef
e8
e6
d9
d8
0f
31
2d
ee
0b
28
3c
0d
c2
d2
e1
da
fd
f9
0c
18
08
d2
cb
09
0c
18
ff
08
e3
d5
ff
f6
f8
f4
d9
b9
f1
fb
10
13
0a
ff
ee
da
05
17
11
01
01
e1
fc
09
0e
fa
25
18
05
0b
0b
01
fc
13
1a
e6
da
0d
0a
fa
0e
15
19
16
13
ff
14
28
27
1a
e8
24
13
05
1f
2e
1f
0f
fc
fa
0a
0c
28
21
f1
2e
43
40
32
18
1e
03
dc
b8
9f
96
d1
f2
f1
27
1e
e8
c9
cc
db
03
c3
c6
af
c0
e2
cb
cd
e8
f5
03
da
92
9c
29
2d
12
e7
d3
fa
f7
f1
03
f9
08
21
31
f2
f2
fc
00
02
f8
04
fe
fc
f8
f9
f6
ef
ef
f5
fe
fb
fd
f8
f9
06
fd
fd
00
02
f9
05
04
05
f8
09
06
03
06
fa
04
09
04
00
f6
fc
f9
0a
fe
fd
f6
f7
fc
04
fe
05
0a
fa
03
01
f7
fe
01
fd
f8
0a
04
f7
f6
03
fb
02
04
01
06
05
ff
02
fd
fb
f6
04
08
fd
06
08
01
05
01
06
05
07
0a
fc
03
04
f8
f7
fe
05
08
fc
fc
f7
06
fb
04
04
ff
09
07
fe
00
07
fa
f7
07
fb
01
01
08
01
01
02
fb
f6
09
f8
f8
fd
07
fc
08
04
07
fc
05
02
09
fb
09
f9
f9
0a
05
06
fb
09
fd
09
07
f7
fd
0a
07
01
ff
04
fd
fd
fb
00
fa
fa
08
07
fb
fe
fb
05
f9
fa
04
01
03
ff
0a
fe
09
01
0a
fa
06
fd
06
f8
06
fd
fc
fc
07
fe
ff
0a
08
01
fd
03
fd
09
04
07
07
fe
f7
fd
fc
04
04
09
06
0a
02
f8
ff
ff
19
0d
00
02
03
22
11
18
16
f8
e6
ee
fb
1b
08
fc
08
01
06
0b
11
02
0c
10
f4
f2
fd
0c
03
00
01
0f
17
fe
ea
f7
01
15
13
07
f9
fa
fe
03
0f
19
0d
ee
f3
fe
f9
fc
15
15
05
f8
fc
0f
26
1c
e8
f7
00
01
fa
ee
08
21
13
01
06
11
1a
06
ea
fd
06
04
ef
ed
06
18
15
15
1c
1d
0f
f0
f3
f8
fb
01
ee
ea
f2
0c
0d
10
0e
0f
00
da
eb
f6
f6
07
f8
f1
f0
fc
08
fe
ee
00
fb
d5
e8
e8
fa
06
01
e5
e6
e4
f3
e6
f8
0d
02
ef
dd
e0
fe
fe
05
e2
df
e5
da
e7
f3
16
14
05
f7
e7
ff
09
f8
df
e2
fe
03
f7
ff
0b
12
0b
03
f2
03
09
fb
ff
00
0c
16
1a
e5
f7
04
09
19
0f
15
16
06
07
fc
0a
03
06
dd
f4
fd
10
0e
fe
13
07
12
02
0a
0b
f9
06
14
0a
e5
fe
17
17
35
17
12
fa
e8
02
fa
0f
e7
ef
e3
ea
0e
10
22
13
0b
04
06
01
e7
04
f3
e8
e8
0c
1c
1a
fc
04
19
ff
19
0e
ef
ff
fa
e7
05
30
24
0c
f8
fc
0f
01
07
12
16
06
ff
15
2b
34
05
e3
f3
fd
fd
f5
f7
32
30
09
23
2d
2f
15
dc
e6
08
02
07
f5
fb
18
20
0c
31
1a
1c
ef
e6
ed
0a
fe
ff
e9
02
07
12
11
21
12
11
cc
e1
e4
f8
04
ff
e1
ee
fb
0c
09
f7
06
e6
c6
d0
e9
fb
ff
13
e7
f6
01
f0
0c
db
04
f0
cd
d8
d8
fa
09
13
f0
ff
ea
ea
ef
de
0a
15
03
f9
e4
f1
02
08
d4
e1
e0
ee
f6
f0
07
0e
18
06
f1
f2
0b
0e
f3
fb
03
12
25
eb
ef
fb
05
10
0d
02
09
13
08
06
00
13
13
de
f8
0a
0f
24
16
18
1f
11
06
08
0c
07
01
0a
14
17
32
54
3f
4a
29
f8
f0
25
1e
fc
e6
11
23
24
00
df
0e
3b
2a
1a
fe
0e
0d
0b
01
ea
ed
0e
ff
08
0b
20
3a
2c
04
e7
eb
e5
e1
e6
e2
e4
0b
2e
1e
f5
02
2a
34
09
cd
db
e4
e5
04
f8
0b
12
0d
ce
c6
01
13
09
f8
03
de
d2
fd
ff
03
fc
d8
ae
ed
06
0b
1d
0e
05
e3
e5
ff
07
17
0b
05
dc
eb
05
03
fe
27
19
05
08
fd
07
0d
15
1c
e6
ea
16
14
fd
1a
21
14
16
03
0a
19
25
34
12
ea
18
16
0e
2c
20
1e
09
f8
ee
05
12
2a
2c
f6
2f
39
36
30
15
20
fd
da
ac
a0
9c
de
e4
01
20
0e
ee
d5
d7
d2
ff
d3
c1
af
bf
db
d0
d4
dc
f8
0a
d8
89
a3
17
37
0a
e1
de
e9
f3
f6
fa
07
02
21
2f
f9
de
ec
fe
f8
fb
00
00
00
f6
fe
fb
f1
fa
f6
fe
01
04
ff
fb
03
02
ff
0a
fc
f6
fa
03
0a
f7
fd
fc
06
f9
05
f8
f8
fd
04
fa
fd
fd
fa
00
08
fd
f6
09
f9
fd
00
f6
0a
f9
fc
fd
01
09
05
07
07
fd
fc
02
f6
fe
ff
fd
01
fc
f8
fb
08
f6
fd
09
ff
03
04
02
08
09
fe
ff
0a
f6
f6
07
f9
03
fc
f8
09
04
fb
02
fe
fb
06
fe
fe
f7
00
06
05
04
04
08
fe
f6
fa
03
07
08
fe
f9
0a
f6
0a
f7
fe
05
02
09
00
f6
06
fe
09
07
01
05
fb
f6
f8
fd
f9
f7
05
fd
06
ff
fb
f6
f6
07
04
ff
fd
f7
0a
0a
fa
01
f7
f8
00
f9
f6
fb
f7
03
f9
08
06
0a
f7
06
08
01
ff
05
03
fc
f6
f9
05
08
01
fb
05
fe
04
f9
06
fb
02
02
0a
0a
f7
05
f8
fb
04
f9
09
05
01
06
f7
02
04
fb
fd
04
09
fc
06
06
fa
15
11
08
f5
fd
21
14
11
10
01
e8
ec
06
1d
f9
04
03
0a
05
03
0c
08
0d
0c
f7
ec
f4
0f
f8
08
f5
0d
14
fa
ef
fc
f5
0e
12
fe
fb
00
0d
08
15
11
0f
f6
fb
f2
fc
03
22
24
0b
fc
09
19
1d
11
eb
ee
01
07
fb
ec
04
2e
1f
00
04
13
2b
f9
e0
ef
fc
02
f3
f7
00
12
18
09
1f
19
18
e3
f4
f7
01
03
f4
e8
f3
07
1e
06
13
0a
07
e4
de
e7
05
09
ff
f2
f2
f5
03
fa
fe
fd
eb
e0
e5
e1
fb
04
f9
f7
f1
ec
e6
e8
f6
03
01
e8
e7
e2
01
fd
05
de
e5
d8
e5
d9
eb
08
1c
13
02
e0
f9
09
fd
e3
f9
ef
08
fc
ee
03
0b
1a
02
fc
02
08
fd
f0
f9
09
1c
1f
ef
f8
0e
16
08
11
0a
0c
00
07
05
04
0c
06
ee
fe
05
14
0b
04
09
10
0f
ff
fb
01
fd
01
13
0f
ee
05
16
1a
32
15
15
f2
f5
05
fd
0c
e7
f1
e8
ee
07
09
2a
0f
16
15
18
fe
e9
03
e5
e8
eb
0c
1c
14
02
0c
07
04
14
06
00
fb
fd
e3
0a
21
29
02
f1
04
09
fc
fa
0e
17
0d
fa
0a
29
23
0a
eb
fd
fc
ff
ea
fc
25
29
0a
1f
21
2a
15
e2
f0
fd
02
06
f6
fd
14
22
1a
33
22
1a
f3
ec
fe
fd
09
04
ee
fd
00
13
1b
29
19
19
dd
e7
e9
fe
fa
08
e1
fa
04
fb
0b
f6
fc
f2
c0
d6
df
fc
ff
04
f1
ed
fd
f4
fe
d8
00
ed
d8
de
db
f9
03
0f
e2
f3
e3
e4
e1
dd
0d
26
06
ec
e2
ed
02
08
d6
e1
e4
e5
f1
f1
0e
10
05
0e
e9
f5
fd
0a
f7
0b
0b
16
2b
ee
f8
04
04
0c
12
0b
04
19
08
09
0a
19
20
e1
e9
06
1a
11
0c
0e
10
18
0e
01
ff
01
fd
fc
fd
08
f4
01
fa
f8
01
05
08
f9
fe
f6
f9
ff
04
fc
05
fe
fc
01
07
03
fb
fa
08
07
06
f8
f4
f7
02
08
fa
f4
f8
02
06
fc
ff
f7
fa
f8
05
fc
fa
fd
03
f9
fd
03
fd
02
f7
fe
f9
08
f4
f9
fa
03
fa
f8
fe
fb
09
05
07
f6
fc
f6
08
05
f6
f7
04
f9
02
f5
f6
fb
f6
05
f6
fb
f4
08
00
f8
fc
02
fb
07
fc
08
04
06
ff
fb
03
05
00
01
07
f9
fc
ff
fd
f8
02
01
f8
fe
00
fd
02
f5
fd
06
ff
fd
fc
fd
fd
f9
f7
fe
09
06
ff
03
01
f9
02
03
fe
05
03
fa
02
03
07
f9
f6
fc
ff
f6
fc
f7
f7
02
04
00
06
fd
01
06
09
03
f6
01
06
02
f4
fb
f9
f7
f6
05
f8
f8
fa
fd
05
f4
fa
fd
01
f9
fc
f9
fc
04
fa
fd
f8
01
f8
01
f4
03
02
f7
fd
f8
f9
05
fa
06
05
09
fc
f7
07
fe
fc
fb
0a
f8
02
02
fc
06
06
07
03
03
03
fd
f8
00
01
06
02
00
fc
09
09
0a
ff
fb
f8
f6
f8
fd
08
f6
fd
04
05
00
fe
00
f9
05
06
02
07
06
f6
fc
f7
04
f7
02
f7
05
f9
f7
fc
03
fc
04
00
fa
ff
07
fa
09
03
05
fe
08
f8
fc
07
fa
09
fc
f6
0a
09
04
f7
02
fe
0a
02
ff
f6
fc
08
f8
01
f8
ff
fe
ff
00
fd
fc
05
01
fb
05
0a
06
05
fe
08
fc
05
0a
ff
fa
03
ff
06
fb
07
07
05
02
fc
07
fe
fc
08
fd
05
04
fc
07
ff
06
f9
04
09
fb
0a
f9
03
03
00
04
03
fb
f7
f8
00
00
ff
00
f7
f6
fc
f7
05
fd
fb
01
02
05
00
04
02
09
03
04
00
05
00
fb
fa
06
01
0a
06
09
ff
07
01
02
03
fa
09
04
fe
f8
fa
ff
02
04
0a
08
00
fe
07
ff
00
ff
09
06
05
04
ff
03
f9
f9
03
01
f9
03
03
05
fb
fa
00
ff
00
f9
06
0a
fc
08
01
02
fe
09
fd
01
00
02
fa
f9
05
f5
f9
0a
fa
fe
f5
fc
fc
04
04
08
fb
09
03
f6
f7
ff
09
fe
f8
05
f6
08
fe
ff
fb
00
ff
08
09
04
fd
fe
f8
05
fd
f6
fc
f7
f6
00
01
fa
f8
03
01
06
04
f8
04
f6
f7
04
08
03
ff
fb
0a
f9
08
f8
f5
ff
01
f7
fd
ff
fe
fb
0a
f8
06
03
fa
03
f6
f7
04
f9
05
f6
00
f6
05
0a
06
03
07
08
04
03
02
02
07
08
fb
02
06
f7
f8
fd
00
05
04
04
fc
fc
f4
00
fc
f8
04
05
02
f7
fc
f5
fd
04
07
f6
fc
fb
06
08
f5
fa
ff
f5
f5
f8
06
01
fa
fd
08
f5
03
fe
f4
08
fa
06
ff
01
fd
f6
04
fb
02
08
fb
01
04
fd
05
f9
06
fc
00
fc
01
07
02
fc
0a
0a
fc
fa
f9
02
0a
03
04
f6
04
06
fd
f9
ff
f7
0a
fa
09
f6
07
fc
f8
03
0a
fb
01
f9
07
09
fd
0a
05
01
fb
07
01
fc
f6
f6
0a
fa
f8
07
fd
f8
02
fe
04
0a
fd
06
fd
fd
03
fe
03
02
f8
fe
09
00
0a
08
fd
fb
03
fe
ff
ff
f9
07
fc
f7
f8
f9
02
f6
04
fa
00
fd
fd
07
fc
04
07
05
04
ff
fb
f8
0a
f7
fd
09
fe
f7
0a
fd
04
05
fd
f6
ff
f8
fb
f7
05
f9
05
09
05
06
02
07
0a
02
04
07
00
09
03
fa
f8
03
f8
f7
0a
08
fd
05
04
0a
03
05
f9
03
f8
f8
06
fb
08
fd
05
0a
01
0a
f9
06
03
08
0a
fe
02
fb
04
00
fb
fa
03
09
f7
07
07
f7
05
01
08
09
06
fc
f5
07
00
03
02
00
06
fd
04
05
fb
07
15
12
38
41
4d
3b
2a
02
fa
17
1f
fe
e1
11
12
20
f8
ec
0a
2d
36
15
fa
05
02
0d
ff
ea
ec
0f
fe
01
04
14
38
3a
13
ed
e8
f5
e7
e6
d4
ea
05
29
28
f2
03
1a
31
04
c7
d0
de
d5
06
f7
01
1d
12
da
c6
02
0c
19
fe
fb
e5
db
0d
07
05
e9
da
b8
f1
06
03
17
19
fc
f0
e7
04
0a
16
fc
0c
dd
fa
0d
05
05
17
0c
09
f9
fc
0c
06
12
22
f0
ec
0f
15
01
11
10
1e
0a
0a
01
21
21
2a
15
f1
22
05
12
28
2b
25
0d
f5
f4
02
19
25
2d
f5
28
3f
3d
1c
1d
21
07
e5
bc
94
b0
d3
ed
fa
1e
20
dd
d4
cb
e0
fb
ca
c5
ba
c1
d4
ce
d2
e1
f5
fe
d8
99
a5
26
36
03
ee
d5
fc
ec
f4
f3
02
02
25
28
f6
e1
f0
f4
fb
fa
06
07
f8
03
f6
f5
ec
ee
f3
f9
f9
ff
fb
f9
08
f8
f9
fd
08
00
fc
f9
02
09
f8
fd
fa
ff
ff
fb
06
03
f7
07
fd
00
02
07
01
09
00
fc
09
08
fe
08
03
04
fb
f6
04
fa
03
f8
fd
f7
fa
ff
f9
08
02
07
01
fd
f6
ff
fd
01
f9
08
00
09
05
fa
ff
ff
fb
04
01
0a
01
08
07
04
f7
05
00
00
f9
f9
05
03
04
f7
fc
fa
f9
05
00
fd
00
fd
00
f7
02
07
09
07
fc
f7
09
03
05
0a
04
f7
07
fb
fd
07
ff
01
02
05
fe
09
fc
fe
ff
fb
fd
fd
fc
0a
00
0a
0a
03
06
f8
00
0a
ff
fa
00
fc
f9
06
03
03
f6
ff
09
01
0a
fd
01
06
00
06
09
07
04
07
08
f6
08
07
05
fa
08
03
04
f6
09
f8
04
0a
06
fe
fe
f9
fa
fb
06
07
fd
03
02
fd
07
fa
02
02
00
02
07
04
ff
03
05
fc
f9
06
ff
23
13
01
00
0a
15
1e
16
15
ec
e8
eb
0b
29
fb
fb
f7
06
07
09
04
11
13
02
f1
eb
f5
08
05
fb
fc
19
0d
0a
f0
f1
fa
04
20
04
01
07
01
04
11
0f
0a
ed
fb
fd
f2
01
1d
22
08
f8
fe
19
2a
11
e9
f3
ef
02
f5
f2
00
25
1e
0b
13
18
2b
f3
e9
f5
f7
06
00
ec
f9
17
26
05
0f
1d
1f
f6
f7
fb
05
f7
ff
eb
ee
fc
0d
03
0c
14
f7
d9
ec
f0
03
fd
fd
e9
fc
fb
fb
05
01
fc
f6
db
d9
ec
06
0f
fb
ed
ee
f4
ec
f2
f0
03
07
ea
e3
e0
fc
08
fc
e1
e5
da
d9
d3
f7
08
0f
0b
f3
de
ff
0c
fb
dc
f5
fc
0a
fc
00
01
07
0a
15
f2
00
15
0c
fb
0b
09
1e
19
f0
f4
11
05
07
0e
0c
10
04
ff
08
09
09
0d
dc
fc
07
10
0b
10
13
03
0a
03
fd
fa
fb
04
08
02
eb
f7
0d
1a
35
15
1c
f5
fb
f8
fa
09
f7
f0
ed
fd
0e
12
22
1a
18
0c
0e
05
e1
fa
ea
e0
e1
04
20
08
09
02
0e
07
0e
05
f0
f7
02
f0
09
26
22
01
ee
fc
05
03
04
12
1a
0d
0b
15
23
28
fa
ee
ec
f1
08
f2
fd
2a
2d
13
10
22
1d
0d
e2
e4
ff
06
00
f7
ff
11
16
12
30
26
2b
f2
f9
f6
08
0a
fa
f4
fc
fc
0c
11
22
1a
19
ce
e7
e6
06
07
06
ed
f3
fe
07
06
f2
01
f8
c6
ca
e8
fa
fc
0e
eb
ed
ff
f3
0d
d3
fb
ea
d8
de
d4
f6
03
0d
ec
00
de
de
ed
e1
14
20
0c
f4
d7
ee
02
11
dd
dc
d6
f1
fa
f2
0a
13
17
0a
ee
f9
fb
ff
fa
0c
02
17
2a
dd
f4
f7
07
09
07
07
09
14
fc
f6
09
1b
16
db
f2
0a
15
12
17
14
1b
14
02
02
06
09
0c
