08
0b
02
0f
34
3c
2c
21
0a
e3
e3
de
e9
f6
c4
db
fc
02
05
0e
fd
0c
11
07
03
f6
d8
d8
cd
db
01
13
0b
f1
ea
e5
0a
f6
f4
e8
e4
fc
fd
f0
04
16
01
f6
d9
e7
ee
15
11
f6
03
11
17
2a
15
fb
e4
ed
e8
f2
f0
fd
0c
1b
27
16
24
2d
1a
ec
dd
fd
ef
f2
ff
14
25
12
23
2d
2b
27
fd
e5
09
15
fb
f5
f8
0a
0c
23
1a
1b
20
0b
e4
cb
01
0b
f4
ef
f3
fb
0f
25
f6
fc
f2
f6
bf
bc
f0
02
ff
02
e5
ef
0c
f4
01
e5
d4
e3
c5
d1
da
fa
fa
fd
ef
e4
ea
d3
cb
b1
e0
0f
33
1a
f2
ee
f2
f9
df
d0
d6
e1
ea
cd
02
30
2c
29
06
ff
ff
06
eb
f7
11
2e
3a
1d
08
09
19
11
1a
0e
16
1a
0c
0c
06
0a
25
46
f4
0b
14
10
11
09
0c
13
0f
fc
03
f9
fb
3d
0e
10
02
01
00
0a
09
15
0e
fe
ec
ec
fd
17
f7
fd
09
0e
0c
07
fc
08
10
0f
05
ef
f2
07
02
06
03
0f
15
00
f7
ee
fb
11
19
02
05
07
fb
0f
11
0e
fa
fe
ee
f3
f1
04
14
19
0f
0d
04
15
19
08
e6
ea
fd
f7
ff
fb
07
1b
0b
00
06
0c
1a
ff
f8
f3
f7
f6
fb
f0
fc
11
1d
06
09
0d
0b
f1
f0
ec
03
04
f8
f6
f1
fc
0c
0b
0b
10
fc
e7
e2
ec
01
f8
fb
f8
ee
f5
fd
08
fc
03
f7
dc
e2
e8
04
05
f8
f8
eb
e8
ef
eb
01
fd
05
eb
e5
e1
f4
fd
fc
f2
ec
e7
e6
ed
f5
0e
13
16
fe
ef
f6
f9
f0
fa
f9
f7
08
00
06
0f
0b
09
04
fb
fb
0f
fe
01
05
0d
20
22
f2
01
fc
08
0b
0c
0a
10
0d
fc
00
08
07
10
e9
f5
05
02
12
05
0d
ff
fb
03
01
fb
03
fa
06
f7
02
fd
02
0a
ff
02
ff
f5
fb
1b
fa
e0
f9
f8
f7
fa
ff
ff
04
fb
09
fc
f7
07
fa
ff
ff
fe
00
f7
09
fa
06
fa
fe
00
fc
fc
f8
fd
00
fd
ff
02
ff
f7
fc
03
03
05
01
07
f9
f8
fd
00
07
fa
f9
00
02
f7
fc
f8
02
01
f7
fa
00
fd
f9
fd
f7
ff
ff
01
01
fe
08
fd
04
04
ff
f9
f8
03
03
06
fc
08
0a
fe
fc
fd
f8
06
01
04
06
fc
00
08
f9
08
05
fd
f8
05
05
fc
05
03
09
05
01
f6
08
08
fd
ff
00
ff
05
01
f8
03
fa
03
04
fb
07
00
fb
08
06
07
f9
f9
f8
06
06
fa
04
02
fc
00
fa
fd
04
01
f9
f5
fe
f9
f7
00
f9
fa
02
01
fc
01
05
fc
fd
03
02
03
07
ff
03
fa
ff
07
f7
fa
f8
08
ff
f8
fb
fd
06
f6
f7
fa
00
f7
02
08
fe
fe
f8
1f
1d
00
10
10
3c
4f
20
2b
bc
b8
21
5d
4f
2d
00
fb
1d
0b
19
39
16
37
ff
fb
f8
19
3f
03
f5
f5
24
2a
ed
d8
e4
3e
3e
13
dd
b0
03
ef
f6
f8
21
26
fa
f7
e7
1c
76
59
0f
e7
de
cb
f6
19
1d
c5
ef
17
10
eb
19
54
58
1b
ff
c4
06
0e
e9
b5
f4
1f
02
e9
19
60
57
22
1b
2c
04
0a
ee
d1
21
1b
09
c0
df
59
3f
3a
20
3f
06
04
d2
f1
25
01
0d
c2
c2
3c
39
29
22
47
f7
0e
ea
ec
25
13
1f
e7
a1
2d
ff
23
21
27
03
07
d5
c9
15
1f
29
15
b4
32
f0
17
37
21
ed
14
e2
99
b2
fc
28
13
95
ed
dc
0a
21
f2
fd
2c
29
d1
89
e2
fd
11
b7
31
3b
08
db
a0
00
16
06
ee
a3
e7
16
fa
c3
02
f9
10
e4
a9
de
14
1c
08
00
fd
04
07
f4
06
ff
ea
fd
16
ea
db
f6
e5
c5
be
d3
db
e6
1d
07
12
0c
1f
29
1a
fa
f7
f9
e3
fa
e2
ec
e9
f4
0e
20
2e
29
1f
fe
e8
e7
0b
1a
0d
fc
0e
0a
1f
24
01
fa
06
05
ec
f1
0c
25
0f
11
f0
f7
ff
09
f6
e0
d7
e3
f4
0a
1c
1b
0d
07
11
f2
ed
e5
ea
d3
d7
e7
0a
10
0a
12
0c
00
ef
ea
f3
d8
d3
e7
ec
00
1c
f9
fb
fc
0b
10
fa
ff
eb
e2
db
f1
fa
1d
28
08
f5
04
12
1a
f9
e6
ec
04
0a
0d
12
3c
3e
20
0e
02
02
16
00
fb
10
10
26
35
23
44
2d
27
0c
00
00
1a
11
10
21
30
63
20
f2
d4
e9
1d
13
10
fa
25
2e
2a
24
22
35
fc
cd
cd
df
f2
04
05
ff
19
04
f1
cc
bc
e1
f9
f5
f3
ed
ee
ec
e3
ed
ee
f9
01
fa
dd
b8
0e
f5
f8
e7
f7
f4
fa
eb
ff
ff
01
0f
08
d5
f6
f3
f9
0e
02
f0
ed
ee
f3
fb
1c
12
03
ec
02
0b
fd
01
f8
fa
fa
f6
ff
f2
ff
07
01
f3
fc
0b
fd
ed
f4
0a
06
0f
06
f0
fb
06
0b
01
01
f8
e8
fe
ff
12
06
03
12
0e
ed
f3
f1
fc
05
fa
e4
ff
1c
13
0a
fc
0c
11
fc
f2
ea
07
f7
f5
ec
01
1a
12
0f
07
05
07
00
fb
fa
f9
f3
f9
07
15
13
17
0d
ff
05
09
10
02
f6
fd
f6
03
13
22
1c
0c
fe
fe
0a
15
0c
18
0e
fa
09
05
0a
24
1d
0e
00
0a
09
18
0d
20
14
19
0e
00
0b
19
15
15
0c
08
16
17
0f
23
20
15
0d
f9
f6
f9
02
19
0c
f8
13
12
09
0b
06
fa
08
f7
f3
f7
f6
01
07
fb
05
10
05
fb
f2
e7
13
fd
fb
f9
02
04
fb
f8
00
ff
03
07
fd
01
1f
0a
ff
fc
ff
02
fb
01
ff
fb
fa
05
0e
ff
08
fd
06
fc
fc
03
05
f9
fc
07
fd
f6
fc
2b
05
f7
fc
03
f9
09
fc
04
02
fc
f7
01
f8
ff
02
fd
06
f7
f8
05
fb
08
fe
fe
09
ff
f8
f9
03
07
08
fc
01
07
fc
01
fb
01
09
08
fa
05
09
fe
03
f7
05
fe
09
07
fa
fc
f8
f7
f7
05
06
fa
07
fd
03
08
07
f8
04
fb
f8
00
fe
02
01
06
05
f7
f8
fa
05
09
fa
02
01
04
04
02
06
fd
09
00
f7
05
07
06
01
03
03
fc
00
00
fb
fc
fc
fe
fa
06
00
07
fa
03
fd
05
fc
fb
01
fa
07
00
05
fd
fe
f7
03
03
06
01
ff
ff
04
09
01
f8
f7
04
09
fb
05
08
08
06
fa
14
00
fa
f6
fc
08
0a
07
f9
06
05
09
fa
08
fc
04
f8
ff
fa
fd
ff
fd
04
09
02
fc
fe
fd
0d
ff
06
01
f7
fd
fb
03
09
08
02
fa
00
02
e3
ed
03
ef
e9
c8
be
dc
ce
35
4a
ef
ab
ba
d5
fb
f6
e7
ef
f6
c7
e2
c8
f4
06
02
ee
cc
f3
13
0d
e4
e3
14
24
26
c8
d5
f0
1a
45
04
21
01
10
e3
e2
0e
07
0e
f0
a6
a8
ec
12
0c
36
00
e9
e1
2b
22
ed
f7
0f
f0
bd
bb
f3
0a
21
07
f3
11
4b
0e
e9
fe
27
e6
a0
b3
db
da
e4
06
fd
0d
22
ee
f1
0a
40
13
aa
cd
c4
d4
cd
f8
00
21
08
dd
fe
f6
33
3b
c9
d8
cb
d3
c1
06
f7
22
11
e0
e3
e6
16
5f
d6
08
ed
d3
d8
00
09
27
31
eb
e6
d0
f1
39
d7
0d
e9
c9
e9
15
ed
1f
61
3a
04
ea
ec
6e
0a
27
f9
ef
04
11
ce
de
31
75
2c
f9
ec
4f
cb
db
f4
23
53
05
f1
ef
0c
4b
17
f2
fd
2e
f1
03
ec
1b
3f
18
ff
ef
fe
02
0d
f6
fe
01
08
0f
0e
0e
f2
02
0c
fd
14
30
3f
28
2a
12
f3
f0
e0
f3
e9
c6
d9
0d
0b
02
12
fd
15
07
0d
08
ef
dc
d7
d5
d1
fc
15
0d
f9
ec
e5
03
f6
f8
e5
e6
07
f8
fe
fe
16
fc
e8
df
e6
f6
0e
0e
01
f6
0a
20
2d
27
09
e1
ef
eb
f2
f7
fc
14
23
19
1e
2e
2f
1a
e5
e4
f3
ef
f9
0e
0f
1a
06
29
30
1b
24
02
e4
08
10
fe
f8
ea
03
0b
17
0e
20
12
0f
ea
c1
01
02
04
f8
ed
03
0f
19
05
08
f6
f6
b9
bb
e6
f0
02
fa
e9
fb
05
fc
03
d6
d9
e7
c2
cf
e0
f6
f3
05
e8
ed
e6
d9
c5
a9
e7
14
25
0e
f4
e6
ee
fe
eb
d7
cf
df
ec
c9
fb
27
22
2d
06
f6
f5
06
e9
ee
0b
38
36
29
0b
15
1d
17
10
03
0e
10
02
03
07
0d
26
44
f7
01
13
0e
19
06
17
09
01
fc
f2
fb
f6
34
0f
07
05
f7
05
0b
09
0b
0f
fa
e8
f0
fe
1e
fd
01
fe
09
05
04
0a
07
04
0f
f8
00
f3
00
0a
06
06
0a
14
fd
fa
fa
03
09
18
fa
fb
0f
fb
0b
16
12
fb
f0
ff
f2
fe
fe
0f
15
09
fd
10
0d
1a
04
f3
ed
03
fd
03
f6
03
0d
19
05
05
19
17
f9
ec
f6
03
02
f5
f1
04
0d
18
fe
13
1a
05
fa
f5
f7
02
fb
f7
f7
fb
fe
06
0d
05
0d
f9
e9
ed
f4
fe
07
01
01
fc
f6
fb
fe
04
fb
e9
e4
e3
e6
f5
ff
fc
f9
ed
e5
e8
f5
f8
02
f6
f8
e5
de
f2
03
f4
f2
ec
eb
ee
ec
fd
0b
11
08
00
f7
f8
fa
fc
f6
fb
08
00
fe
fe
00
10
0b
13
fb
fa
0d
0b
03
fa
06
1f
22
f7
f5
01
08
0f
fe
0a
06
09
ff
08
fe
00
09
e4
f0
09
02
05
ff
05
0b
02
01
fe
07
fd
08
fb
fd
fb
fc
05
f7
02
08
fc
ff
07
14
04
da
06
fb
06
01
01
f8
01
f9
f8
05
00
fe
fe
07
00
fa
09
fb
07
08
02
f7
fd
f8
f8
f9
fb
fb
fb
f8
f9
fa
f7
00
01
fe
0a
05
06
05
fb
02
03
f9
08
fa
ff
f7
f8
08
f9
09
05
09
fb
f8
08
fc
ff
09
fc
fd
06
09
00
00
07
fc
08
06
01
fb
09
fd
fb
fe
02
f6
02
ff
03
00
fb
fe
fd
08
f7
03
09
03
fb
03
04
04
01
f8
02
fe
05
09
fd
00
08
fe
01
fc
02
fc
f8
f8
04
ff
02
06
02
09
03
f7
06
f7
05
ff
f7
fe
08
fc
fc
05
02
04
fa
fd
fa
02
02
fb
fb
04
01
f5
fe
f7
06
09
08
f9
fb
f9
09
08
fc
02
07
0a
fc
fc
f9
f7
fd
fd
06
07
fe
04
00
05
f7
f2
fd
08
05
04
05
fa
f9
fa
fe
fb
04
08
0a
27
1d
fd
0c
15
3f
44
22
27
ba
c2
21
55
44
33
02
07
18
0f
19
36
17
3b
fe
f8
ee
20
37
0f
f5
f3
17
28
f2
de
e1
44
2c
16
dd
b7
ff
ea
03
f1
24
1b
ee
f6
e6
14
5b
4f
0d
e6
e6
d9
fc
10
1b
cc
e7
14
06
f4
1e
47
51
0d
fd
c9
05
03
e2
bc
03
17
fe
e9
14
5e
48
29
1c
17
fd
0d
e9
d1
1a
13
0b
c0
ee
54
3e
38
28
37
03
0f
da
f7
18
11
08
cf
c6
36
38
2d
28
38
04
fe
e1
f2
14
1e
12
f1
ac
26
fe
14
1c
2a
fb
fd
ca
d4
09
1f
22
18
bf
35
f1
18
2d
15
ff
1a
dc
9d
bd
06
16
1a
a7
f2
da
05
11
f6
f2
2d
22
d0
9e
dd
0b
0a
c1
37
25
0e
da
ad
f6
07
13
f8
b8
f7
16
f9
d2
11
09
05
f6
b4
e6
03
18
0e
04
f9
0d
f8
00
0a
ef
e9
f6
11
ef
e1
f3
ed
c3
c2
d6
dc
e7
11
06
09
0f
15
2f
1e
ed
ed
fd
e1
03
f5
e6
e8
ea
0a
2a
1b
24
1d
08
dc
ee
12
0f
13
0a
0c
07
12
19
ff
f4
0a
07
e3
00
09
25
0c
17
e9
f7
04
f7
fa
e8
d2
e6
f7
0b
15
12
0d
0e
11
e8
e8
e5
e9
d8
d6
e3
10
1f
00
0f
11
fe
f1
e2
f9
cf
d6
de
ed
00
1f
01
f3
0c
13
0b
eb
00
ee
ec
e9
e7
fc
11
37
fd
f8
ff
10
0d
f9
e6
e6
ff
03
08
1b
46
41
13
0c
0c
04
13
07
f9
06
0c
30
30
1e
52
32
24
14
0c
00
13
13
15
2b
30
52
23
f5
dd
f6
0d
17
04
00
14
22
2d
2b
15
32
ff
de
d0
e3
fd
06
08
00
08
0d
f1
ca
b7
dd
f1
ef
eb
e5
f5
ed
f1
ef
fd
fc
00
f1
e1
bf
04
ee
f3
ee
ef
ef
f2
ed
03
0a
0c
0c
01
c9
f8
ff
fc
fe
03
fb
f5
eb
f9
fd
16
19
05
e9
04
04
02
f4
f4
f9
02
05
f3
fe
0e
03
01
fd
fc
04
f4
f0
fd
09
0e
10
10
f1
fc
05
fc
02
01
ed
eb
f6
06
0e
14
12
12
09
f0
f9
fa
f7
f8
e8
e1
05
0b
0d
ff
0a
05
18
08
ea
ed
fc
f4
e7
ef
ff
0c
0f
0b
fc
0b
14
0d
f4
e8
fb
fb
f2
f6
1c
0a
10
ff
08
0a
0a
0a
0f
f6
f9
f1
f8
0c
13
13
10
ff
07
0c
0f
17
09
05
ff
fd
06
16
23
1f
1e
0e
0b
12
11
10
1e
18
18
0b
00
01
1a
23
21
13
0c
0a
1c
1a
1e
17
0e
0b
f4
ea
ed
fc
16
03
06
09
17
05
06
ff
09
0a
fe
fe
ee
f7
0a
08
f6
ff
0f
fa
fd
f3
e7
12
09
03
f9
f1
ff
ff
02
00
0b
01
04
03
01
1f
14
04
00
fd
07
06
04
f8
02
ff
04
0c
fc
fd
fc
01
f8
02
f8
fb
06
03
02
fc
ec
fe
20
06
00
09
f8
f9
f8
fa
02
06
f8
f9
fc
06
06
ff
09
04
09
00
fa
00
03
04
00
00
02
fe
ff
fa
fe
05
03
05
fa
fd
fb
f8
fc
ff
ff
ff
fa
ff
03
07
06
f8
fa
08
07
05
fb
08
f7
f8
01
04
f7
01
00
ff
f8
fb
00
02
06
fd
09
04
f9
f6
06
01
ff
fd
05
fd
f9
07
fc
06
f9
fe
fb
00
ff
03
f9
f7
08
f9
03
f8
02
00
fb
00
01
00
07
fa
04
09
f9
f8
03
fd
00
f7
06
ff
01
fd
03
00
fc
02
fc
04
f7
fc
f9
04
f9
07
02
06
fa
f8
fe
fb
fd
08
05
fd
06
fa
fa
04
11
fd
f9
02
09
09
08
f9
06
02
f8
01
f7
02
f8
fa
00
07
05
fa
05
04
fa
fe
fe
f8
f7
f9
16
fd
01
f8
fe
04
00
ff
00
06
f9
f7
f7
04
db
e4
fc
f7
ed
c9
ba
e1
d4
48
4a
de
b1
be
d1
01
fc
ea
f4
ee
c9
da
c5
f7
0d
06
e6
d2
f8
0b
06
ef
dc
15
20
22
bc
d0
e3
26
43
08
18
01
09
ee
d5
07
09
19
f3
94
ad
e5
17
14
2d
0a
e8
eb
35
1b
e2
fc
19
ea
bc
af
e8
01
18
ff
fc
13
46
0c
ec
fe
25
ee
a2
b3
e7
e5
d9
02
f2
0f
1d
df
f2
05
38
11
ab
c1
c9
e4
d7
ff
f6
24
0b
de
01
ed
41
3e
cc
d9
d4
e2
bf
08
fb
15
0a
dd
f0
ea
15
65
cc
07
e4
d1
d2
12
0a
31
2f
f5
ef
d1
eb
3d
d8
0d
e1
cc
e7
11
f0
23
66
46
0a
df
e1
6e
17
23
f2
f0
09
13
cf
e5
36
66
24
05
fa
44
d7
dc
f8
1e
4d
04
f8
f5
11
50
1e
f1
0b
2d
f8
04
f8
1d
42
14
f1
ec
f0
10
fe
05
06
06
fa
0d
08
08
f4
f7
09
fa
00
fb
fc
fc
02
fa
04
04
05
f7
fa
06
08
04
f8
02
07
00
06
f9
06
02
fd
08
f7
08
02
03
ff
01
07
01
01
05
fc
fe
04
09
fe
00
04
fa
f8
01
02
f9
09
03
fa
07
03
01
01
fa
ff
07
fb
04
06
0a
f8
03
03
fd
06
04
08
f9
03
f9
03
06
f8
07
06
ff
09
00
f9
f9
06
f8
fd
08
05
09
03
00
04
fc
06
fb
fd
fd
fb
00
fe
fe
06
07
fb
09
07
fd
07
fd
09
ff
07
08
07
04
01
f8
00
06
09
03
fa
00
fc
00
fa
ff
00
06
fc
f9
00
09
04
05
f7
00
fe
02
07
09
04
06
fe
ff
f7
f9
f8
06
05
f8
08
f7
01
f7
08
fc
fa
05
fe
06
09
07
01
ff
f9
fa
fa
06
00
fa
09
fd
09
09
02
f8
03
00
fb
fa
f9
04
04
02
06
fc
fd
09
f9
f7
09
06
fe
03
fd
fd
00
fc
00
fb
f6
03
f7
f5
00
07
03
f8
04
fc
fd
04
02
fb
04
fc
fc
04
fc
fe
08
08
00
06
fd
fa
07
03
05
fa
03
06
ff
04
f5
02
fc
09
02
07
fb
00
06
f7
fb
f7
f8
02
fb
05
01
04
ff
f5
fd
fb
fc
06
f7
f8
fe
fa
00
04
02
00
03
04
ff
fa
f8
08
01
07
fd
04
f9
f9
fc
09
05
f8
f9
04
fe
ff
ff
f6
01
01
f9
f4
04
f6
f9
05
fa
fc
f9
04
01
ff
02
02
fe
fd
f9
fa
fe
fe
03
05
07
08
fe
02
f7
04
fd
f7
f7
f7
fa
03
f7
ff
fe
02
fa
04
f9
05
f6
f8
02
01
05
03
f6
06
fc
fd
fa
fd
f5
ff
06
fd
06
fb
02
ff
fa
07
ff
ff
fd
fe
06
fd
04
02
05
f9
f6
fb
fb
07
08
fc
f9
fe
02
02
00
05
00
09
01
fd
06
ff
ff
fc
04
fb
06
03
fe
fd
03
f7
fd
fd
ff
fb
fc
05
ff
f9
ff
03
fc
08
fc
08
04
fa
f7
04
fe
03
04
f9
01
fe
f7
02
02
f9
09
05
05
f8
f8
04
06
f8
09
fe
f8
f9
fe
05
f9
07
0a
09
04
fc
fc
07
fe
01
0a
f6
fe
fc
fe
00
fe
09
04
fa
09
fd
01
01
f9
05
fa
f7
08
06
fc
f9
09
03
fa
f8
fc
fb
01
01
f7
05
05
f7
08
fc
05
09
06
06
00
01
f8
f9
08
f7
04
fa
08
07
fe
ff
f9
09
fa
03
07
f7
f7
f9
ff
06
fd
fc
06
08
05
08
f7
f7
02
f8
fd
06
09
fe
f7
fb
09
fe
f7
fb
fa
fd
f9
fd
09
fb
fe
05
f7
fb
ff
08
01
00
fd
04
fc
fe
fc
04
0a
f9
ff
ff
fb
f9
fc
f8
07
f9
06
08
fe
09
07
f9
06
02
08
f9
08
01
05
fb
06
ff
08
01
06
fa
f7
03
05
03
03
06
fb
05
05
fc
fa
f5
05
fe
00
f6
f6
09
07
05
06
06
03
05
fd
01
f6
fe
fd
fd
08
08
03
09
fb
00
f7
f9
05
02
fe
fa
07
01
06
f9
07
00
fe
01
fb
00
01
f8
03
09
05
fd
f8
fa
fa
04
02
fa
ff
01
01
f6
05
fd
f8
01
00
03
fb
ff
f7
f6
f8
fc
07
f6
fb
fc
06
00
f9
06
f9
fc
f7
fe
01
07
fb
f8
07
02
f9
04
07
00
fc
fb
fd
04
f7
07
f9
01
07
fd
fc
fa
fa
fa
f6
fb
fd
07
fb
fe
fd
ff
02
03
01
ff
07
f8
09
fe
07
07
fe
fe
05
fc
00
09
fe
fc
05
07
09
f7
06
05
f8
04
fd
03
fe
02
fa
ff
fb
05
f8
01
04
00
fc
ff
03
f9
fb
fe
fb
02
ff
fb
f8
fa
fe
08
ff
f9
fb
00
06
f6
07
09
02
05
03
f8
fc
fe
fa
00
02
01
03
f8
06
fb
07
07
f7
f6
06
06
fd
04
04
e3
e1
fd
e1
c9
c2
d9
cf
e7
0b
0a
0a
0d
11
33
20
fb
ef
04
e0
f5
ea
e7
fa
f6
11
2e
2e
22
27
fb
e0
e4
0e
10
0f
0a
0a
13
0e
1c
0c
ff
06
fd
ed
02
11
1c
15
16
f5
fa
0d
05
eb
e7
db
e0
00
18
0f
11
0d
09
14
f5
e5
e5
d8
d9
d7
de
1a
20
fd
02
04
fd
ef
ee
fd
d1
d7
db
df
03
17
f4
f3
0a
12
0e
fa
fc
e2
f4
de
e6
f9
22
2c
00
fa
ff
0d
1b
05
e8
e4
fc
fb
07
19
4b
3d
17
0e
04
fe
18
04
f3
0d
01
20
26
19
4c
28
18
0a
0e
fc
0f
15
21
2a
36
64
25
f5
e0
ed
13
1e
0d
f8
22
27
24
2d
17
36
fd
d4
d2
e1
fa
01
fc
f0
18
08
e8
c4
c2
e1
fd
f7
f3
e2
ec
ee
e8
e9
fa
f5
f4
f2
e2
b6
15
ec
f3
f7
f6
ec
eb
f0
f9
0a
12
08
02
d1
ec
f3
ff
05
09
f3
f5
f7
f6
ff
18
16
fe
ea
ff
0b
06
f6
01
fc
01
fb
fb
f7
07
01
08
f3
f9
f8
fb
f2
f5
04
08
05
06
f1
f3
04
05
f4
09
fd
eb
ed
06
0d
09
06
0f
02
ea
f3
fb
01
05
f1
eb
02
0d
16
0f
00
11
0a
fc
f4
f5
fd
ef
f5
f1
00
12
12
09
00
09
09
0f
ff
ef
fb
ee
f0
04
09
13
16
09
0a
09
0b
04
03
fc
ff
fe
f8
10
15
10
0d
ff
06
0d
13
13
11
0a
06
fb
04
0b
1b
21
20
0d
ff
0d
17
12
0f
17
13
0c
10
0f
0f
24
14
06
07
0e
22
1e
1d
28
0e
08
fb
f5
fb
04
0e
11
07
0a
18
0b
02
00
02
01
fe
f6
ee
f2
09
ff
fd
0a
0e
08
fe
f0
e4
1c
ff
f9
f6
02
04
00
01
f4
fa
08
02
05
f3
24
02
05
00
f5
08
03
f9
fb
0a
00
05
0a
07
fd
07
03
01
fc
04
ff
07
02
0c
fa
f3
0c
24
ff
fa
fb
06
fa
fb
05
fb
f9
02
04
f7
01
f9
04
05
03
09
fe
fc
03
03
fc
fa
fd
04
04
f8
08
f9
ff
02
f9
09
fb
06
00
fb
09
ff
02
09
f7
08
fb
f8
05
fd
f8
fb
06
04
00
05
02
f9
02
07
ff
ff
09
fd
09
08
08
03
03
02
f7
fc
fb
ff
fb
fd
f9
f9
03
09
fc
fa
fd
fc
f7
08
07
07
fb
fa
09
fa
f8
f8
03
ff
fa
08
fb
01
05
05
08
ff
05
ff
01
fa
06
02
02
ff
04
f7
08
08
05
00
f7
fd
f8
fb
08
ff
0a
fb
fc
f8
04
04
05
08
06
f7
00
08
07
04
fb
f8
09
0a
03
fd
fd
03
09
fe
04
04
fe
02
03
09
fc
05
ff
04
f8
06
08
02
00
03
f8
f8
07
f7
fe
06
f7
fc
00
f8
f9
f8
00
fd
07
f7
f8
fd
0a
ec
e6
fc
f3
ee
c8
b9
dc
d9
44
3a
e4
b9
c7
dc
fe
01
e0
fe
f9
c5
e7
d5
f8
02
10
e7
cb
fd
11
10
df
e4
0f
19
1a
ca
d6
ee
24
3c
01
12
fd
03
de
d2
0b
fe
16
ef
9e
a7
e6
13
1b
2f
fe
e4
e9
2b
21
f2
fc
10
ec
b9
b5
ec
01
22
0a
fc
1d
4a
01
e9
fa
27
ea
99
bd
e1
df
e3
f9
f3
0c
26
e1
ec
f7
35
11
a8
c5
cf
da
cb
fa
f3
1e
04
de
f9
fb
3e
38
c9
d9
d1
d6
b6
03
fa
20
08
e5
ec
e4
11
64
d7
fc
df
de
e0
00
fb
2c
34
f4
ea
d0
e6
46
c9
10
de
c8
eb
0d
f1
26
5b
3e
04
e1
dd
5f
09
23
f5
ee
12
04
de
dd
25
69
2b
fe
eb
4b
cf
dc
ef
17
51
02
f3
ef
18
52
0b
e9
07
38
fb
fa
f3
1c
43
1f
ff
f7
f8
fd
fc
03
ff
12
05
03
16
04
ec
14
1e
ff
13
31
3d
1f
29
0f
e7
e8
eb
eb
ee
cc
e2
01
00
00
15
02
19
0a
0a
02
eb
dd
e0
d8
de
01
21
13
fb
df
f4
04
f7
e7
eb
e2
f8
0a
00
fc
14
02
e6
d4
ea
ef
18
16
f8
f4
10
18
23
26
08
e6
f2
e2
e3
fd
fc
14
1c
15
1d
28
20
17
f1
da
fc
fd
f5
0b
1a
1a
07
24
1f
23
1f
fa
ea
02
0f
04
ff
f8
09
05
18
1a
28
1a
04
e5
c5
f4
04
fa
f5
f2
02
1a
1f
fd
02
f2
e8
c2
c8
e8
02
01
f1
ea
fc
07
f9
f8
e2
d1
ea
b5
d3
e6
f7
f4
07
ea
e1
f2
de
cf
ae
e3
07
31
1b
ed
e7
f7
02
e7
d0
da
db
e3
c4
0a
23
28
1e
13
f2
fb
05
f7
ee
0d
2b
3d
19
06
13
15
17
11
05
13
1f
0d
08
04
13
2a
4d
f7
0b
0f
14
07
12
09
0c
07
f6
f2
02
fb
38
11
14
ff
f7
08
07
05
0c
10
04
e9
ea
07
0d
05
fb
fe
07
0e
ff
fa
07
0c
08
04
f6
f6
02
fb
fb
08
10
15
fc
fc
ff
fa
06
13
f8
05
0d
02
08
14
15
ff
f9
fb
fe
f7
f7
14
0f
0e
00
0e
16
12
04
ee
f0
fa
fa
01
f9
03
12
0b
ff
06
1d
15
f8
ef
f6
00
01
00
f1
f9
02
0f
fe
0e
0b
01
f9
fa
f7
03
04
f8
fa
f6
f5
12
01
08
ff
f1
f1
eb
f5
00
06
fa
f7
f0
f6
01
fb
f8
f7
f9
e6
e8
f3
fc
f9
01
f5
f0
f0
e8
f5
02
00
f4
f7
e8
e3
00
04
fb
ef
e6
dd
ec
ee
04
10
0c
16
09
e8
fa
fa
fe
f7
fc
06
01
01
fc
0d
13
0a
01
fd
08
04
05
f5
fa
02
12
14
eb
00
0c
0a
0e
fe
01
ff
0e
01
fc
f6
05
00
ee
ef
04
0e
01
0b
0e
0c
0c
fd
00
08
03
fa
07
fe
fd
04
09
fb
01
ff
00
ff
05
0b
fb
e6
fb
09
f8
03
06
03
04
01
fe
07
fe
08
09
f7
08
02
f9
fb
ff
09
06
fd
fa
fa
fb
00
f8
fb
fa
03
03
03
08
02
fc
04
fb
09
fc
fa
fe
fb
ff
fe
01
ff
f9
f7
f9
f7
f6
09
06
04
06
03
fd
ff
fc
04
02
f8
01
f9
07
01
00
fa
01
01
02
f9
fc
f9
fa
fb
f8
09
f7
fd
00
fc
fd
05
fe
ff
09
fd
00
06
fe
f8
07
f8
f6
fb
01
08
f8
fb
09
08
04
f8
05
ff
f9
08
f9
02
fb
08
00
fe
05
09
ff
07
fd
fb
fb
f7
09
02
f9
f8
06
00
f9
ff
fc
01
fc
fb
fa
fc
00
05
02
f9
fd
fd
fa
f8
fa
fe
09
f7
07
05
05
05
05
0b
04
fe
04
ff
fb
04
0a
07
fc
ff
04
05
f8
f5
ff
09
03
fc
fd
08
fd
02
08
f7
ff
f7
fd
23
1a
03
0b
18
36
49
20
30
c3
c5
17
4f
49
25
09
04
1a
05
16
31
21
37
11
ec
f5
1e
31
09
f6
ff
20
17
f1
ec
e9
48
30
15
ea
c0
f7
ee
fd
00
18
24
fa
fe
e9
1c
61
54
11
dc
df
d7
04
17
20
cb
eb
1f
0e
fa
16
43
53
1f
fa
d4
fb
0e
e3
ba
04
12
f8
e4
17
58
4e
21
1f
25
0a
08
e5
e1
16
10
04
ce
e9
4b
34
39
28
37
14
01
d8
ff
1d
04
06
cc
bd
37
25
31
26
45
05
fc
df
f9
1a
1c
12
f8
ad
25
00
24
2b
25
f8
fd
cc
d5
10
1a
26
0d
c1
33
f7
1a
35
16
f4
24
ea
a8
b6
ff
1b
21
a4
f2
e0
08
16
fc
f5
2c
22
d0
8f
d5
fc
0a
bb
32
33
11
db
a4
05
0d
16
ea
aa
ee
1a
f2
ca
00
04
0e
ea
bc
e1
0a
0f
0a
fd
fe
10
fa
f6
04
f4
fb
fa
15
07
ff
06
ff
07
01
04
04
fc
08
08
fe
fd
f7
05
f9
f7
08
02
08
f8
fb
fd
06
f9
f8
fd
fb
09
05
f9
fc
00
fa
f9
09
fa
06
fd
f9
fc
fc
f9
fa
00
fb
08
f7
fe
06
fa
fe
f8
f7
05
02
01
08
00
f8
f7
01
fa
09
ff
08
fe
fc
f6
09
f8
07
fc
f9
fd
05
07
f8
f9
03
05
fa
04
ff
f8
05
f8
ff
fe
fc
fe
f7
09
f9
06
00
00
ff
fc
fe
07
fb
04
f8
fb
07
04
f7
f9
06
ff
09
f6
03
f6
04
fd
ff
ff
01
fa
fb
04
fa
03
ff
06
fe
07
00
fb
02
fa
02
fb
01
fe
fe
f8
fd
08
05
fc
01
02
06
07
fb
fe
08
01
fb
fb
fb
f7
fa
0a
ff
06
f7
05
04
f7
fe
03
f8
04
06
f7
fc
07
ff
fa
02
f8
03
fa
04
fb
fd
fc
05
f7
06
05
f9
07
07
fa
01
02
ff
07
fe
fd
03
05
08
f6
fe
fc
fc
fd
fb
fa
fb
f9
04
05
fc
09
04
f9
05
01
08
ff
fc
08
f7
04
f8
fe
ff
f7
fb
fc
ff
02
f9
08
01
01
02
fa
00
f7
09
fc
f7
01
f9
f8
f9
ff
03
f6
ff
fe
fc
04
07
01
fc
03
fc
ff
05
fe
09
0a
03
ff
fe
04
01
f8
f8
00
02
06
07
03
07
07
f9
09
fb
fa
01
f9
01
00
03
fa
05
07
01
05
fa
04
fa
fd
fe
00
09
01
0a
02
fd
fd
ff
fa
04
09
06
06
09
01
ff
fd
f8
fa
ff
f9
f9
02
fa
f8
f9
04
01
f7
f8
04
09
03
05
00
04
05
fb
05
fd
03
f7
fb
fa
fc
09
fb
03
ff
02
fc
fa
f8
01
f7
f7
09
04
fe
fc
09
00
f8
07
09
02
07
f8
00
09
f7
f7
01
03
02
fd
08
07
f6
f7
08
fc
02
03
02
fb
f9
f9
04
ff
fa
f8
05
01
f7
ff
fd
00
02
03
f7
01
05
fe
07
09
03
09
04
fa
06
fc
f9
f7
01
09
fd
02
03
06
08
05
fd
00
f7
f9
fb
06
02
00
06
ff
07
09
f8
08
06
ff
03
fa
fd
fb
f9
fe
f6
fe
06
fa
fd
00
fc
01
f7
03
09
01
09
f8
fb
fd
08
f7
fe
f7
02
f8
f8
fa
fc
06
02
f7
09
00
03
fb
fb
f9
f8
fb
05
fc
f8
03
fd
f9
08
f7
f7
06
05
fc
07
fa
fb
ff
fd
06
f7
08
06
fb
fb
02
ff
f7
08
08
08
05
f9
fb
fc
03
05
00
f7
fa
fb
fa
05
00
f9
fa
f9
f9
04
fb
f8
01
ff
f8
03
01
01
04
fb
f8
06
09
09
05
09
03
f8
03
f9
f7
04
fb
f9
09
03
04
fd
04
00
fe
fe
07
f9
fd
07
00
05
fc
06
f9
fb
f8
f8
06
06
05
05
07
06
06
fb
07
06
03
fe
08
ff
f7
fc
00
05
03
02
08
06
fb
fd
ff
ff
f9
fd
07
f7
01
02
fd
fd
fb
f7
f7
05
00
00
fe
f7
fe
f7
05
fd
fd
03
f9
fa
fb
fe
fa
f6
04
05
fc
f9
07
fa
f9
f7
02
02
09
fc
fa
09
07
f7
f7
04
fb
02
ff
fd
08
03
03
f9
fd
05
05
01
f7
fb
0a
08
05
fa
fb
03
f8
ff
04
04
05
01
06
f7
fb
fd
06
f8
07
fa
fd
07
09
03
fe
07
00
06
04
00
09
05
09
09
02
fb
fd
fe
fd
01
09
06
03
05
fb
04
08
03
00
08
f8
05
fe
f7
05
fe
fe
fc
fd
ff
f7
05
01
04
0a
fe
fa
fa
ff
fe
03
01
03
fb
f8
00
02
fb
fd
fe
f7
09
07
f9
f7
08
08
f7
02
fa
f9
f9
00
09
04
f7
05
09
07
09
fa
fb
05
f8
fd
07
03
fd
04
fb
fb
03
fb
07
04
06
07
01
fc
f8
fd
f8
06
01
fc
00
07
fc
02
01
ff
fe
04
fd
f8
02
fa
fb
00
05
fd
fa
04
fa
02
03
00
fe
ff
fb
06
ff
fc
fb
04
fa
04
00
f7
06
04
04
fc
f8
05
f8
05
08
ff
f8
07
f7
fd
f9
04
09
fa
fa
08
05
07
f9
09
fc
fb
fd
01
06
fe
f9
02
f7
f8
02
09
fa
05
fa
fd
0a
03
fc
fc
02
06
07
01
fb
05
f8
00
f7
fe
00
08
02
f9
04
00
fa
f8
02
fa
fc
fb
f9
fa
ff
00
07
f8
08
09
f7
06
08
f9
05
04
05
fd
fb
00
fd
04
f9
08
fd
06
fd
ff
01
f7
04
09
f9
04
f7
00
fc
f8
04
06
01
03
fb
06
f8
fd
fd
fc
08
07
05
fc
fa
fd
fc
01
05
09
07
f8
08
f7
01
01
fe
fd
fc
06
fa
02
03
07
00
08
f7
fb
f8
00
fa
06
fb
01
08
f6
04
f8
05
fd
f8
02
01
03
06
ff
fc
09
fd
08
06
f7
fd
01
f8
02
fc
fb
07
04
0a
fe
fd
fa
01
08
ff
fd
06
00
01
09
09
09
f7
02
08
09
f8
07
fc
fb
fb
fb
fe
00
fc
06
fa
09
f7
03
fa
fb
02
fe
fa
ff
f9
fa
06
01
fd
08
01
07
04
01
fc
fc
08
02
08
06
ff
f7
04
fe
02
fc
08
09
fa
fe
f9
05
f9
f9
f9
f8
07
fc
06
fd
fd
fd
f8
03
fc
03
f8
02
08
fd
02
f6
fc
08
04
04
04
fe
fc
09
fc
ff
f9
07
fd
fc
fa
02
f9
08
07
f9
f7
03
fa
f6
06
fe
02
01
fa
fb
03
f7
ff
ff
fb
0a
f7
f8
f9
05
f8
06
09
09
09
02
f8
02
04
ff
f8
07
02
06
ff
f7
08
f7
f9
09
fd
05
06
ff
fe
04
fe
04
fd
fb
fa
f6
fd
fc
03
00
fa
f9
ff
03
01
01
fb
fc
ff
04
f7
04
05
f6
04
01
04
fb
06
fa
fc
03
fe
07
ff
f8
f8
00
f8
09
08
06
f9
fe
07
02
01
ff
fb
fd
06
fe
fd
05
fb
ff
08
01
04
fb
05
fb
09
fd
f9
fe
07
08
01
07
fd
ff
07
00
02
06
01
fa
01
ff
ff
09
08
f7
fc
ff
06
fe
ff
fd
fa
f8
f8
02
04
ff
09
fe
07
fe
fb
01
f6
04
02
04
05
08
fa
f7
01
fc
00
08
01
01
f8
00
f8
fe
07
ff
04
03
07
03
f7
ff
01
fc
f9
fa
04
fd
ff
03
06
05
04
09
02
fc
04
ff
0a
f9
fa
06
fa
05
fa
03
08
04
fa
04
00
fe
f7
fa
fd
07
f9
f7
f9
03
f7
f6
00
f7
02
ff
09
fc
f7
fa
00
fc
09
f8
f7
04
fe
06
02
03
07
ff
fc
fd
fd
f7
08
04
fd
08
04
04
06
02
ff
07
03
06
05
fa
fe
08
fe
fc
fc
f8
06
06
fb
f7
02
01
07
02
ff
06
06
05
07
f7
04
05
06
fc
02
f8
08
01
07
03
fc
05
06
fb
01
fb
f9
04
f8
04
f9
00
fd
05
09
f9
fd
fe
f8
f7
fc
fe
08
03
08
f8
fb
01
f8
04
00
f7
f7
01
03
00
fd
06
01
fb
08
fd
fd
ff
fe
ff
fc
06
00
05
01
06
fa
05
04
04
fb
01
fc
fd
fe
ff
04
0a
fd
09
05
f7
08
f8
fc
fc
00
f6
f7
f8
fb
00
06
f7
01
07
03
02
f7
06
fe
04
fa
fe
06
fa
f9
ff
05
f9
01
fc
01
01
06
fb
f7
01
05
fc
03
f7
05
05
f7
fe
04
04
03
f9
08
f8
00
fb
f8
fc
09
f8
07
09
fb
03
fc
f7
f8
fe
f9
ff
06
05
f6
04
00
03
06
f8
fb
04
02
fd
fb
01
fd
03
fc
09
01
fd
f8
09
f9
f8
04
fb
07
02
fa
f7
fa
09
00
fa
08
03
07
07
06
05
04
04
05
fd
fe
fc
fb
08
06
07
04
07
06
ff
f7
04
fd
fa
07
08
06
fd
fc
08
06
fe
f9
fc
fc
fa
f8
fd
05
fc
04
00
f8
08
08
fe
03
04
fa
02
f8
01
f5
fd
fd
f8
01
fd
ff
01
08
f9
04
f8
01
00
04
f9
01
fe
f8
f8
09
00
06
f4
05
02
01
03
f6
fd
f5
ff
08
05
06
fb
f7
fa
04
05
06
00
fc
f3
fc
04
03
fd
fb
05
fd
fd
fa
00
fa
02
fe
fb
fb
f8
07
fd
08
f7
03
00
04
f9
f5
00
f5
04
fd
03
06
fe
fc
fd
f7
ff
fe
f6
fe
05
04
02
fd
01
05
fc
fd
fd
01
f4
fe
03
ff
f5
f7
f4
f4
f5
ff
fc
f7
05
ff
f6
f7
fc
03
f9
f9
02
fb
f9
06
f8
03
f4
fd
fb
f6
f7
02
04
fe
00
02
fb
ff
08
06
f9
fe
ff
f9
02
f8
00
02
fb
f5
f5
ff
05
06
02
fd
fb
fd
f9
fa
02
f4
f6
fa
f7
f9
05
01
01
f5
ff
01
fe
f8
f8
02
ff
ff
f9
f7
08
fd
05
f3
f8
f3
05
fd
00
03
fd
fe
f5
fe
07
fb
f5
f7
fc
02
fd
f6
fd
f9
fd
02
f4
fc
fb
04
f4
fa
f3
f5
f8
fe
f3
fb
f7
03
f6
f4
fc
f4
f8
ff
f4
f8
02
03
04
04
04
fa
f8
fa
fe
fd
f6
04
f9
03
fc
00
fd
00
f6
00
f6
01
f8
ff
f3
f6
04
03
f3
f6
f3
fd
f9
fc
ff
ff
fb
02
f4
03
f4
f7
f9
f6
fc
01
f9
f9
f7
00
f5
06
fe
f5
fb
ff
06
f9
f4
f7
fe
02
fc
05
f6
f3
fd
02
05
fd
fb
01
02
f3
f7
03
f9
f4
f8
f7
fb
fb
f4
05
fc
05
f9
03
ff
f3
03
02
f9
04
fa
f8
f9
f5
04
f9
f6
05
f2
f5
ff
05
fb
f7
f7
02
fc
f5
f8
f4
00
f7
fd
03
03
f3
04
05
04
ff
fc
f6
f7
f7
f9
01
05
02
f9
fe
fc
f9
fa
fc
fd
00
ff
03
fd
f4
fd
00
f3
fe
06
fa
05
fa
04
03
04
f9
04
f9
fb
04
f9
05
05
09
fb
03
08
04
fe
08
06
03
fd
fa
09
00
ff
00
fb
05
02
02
ff
03
08
05
09
03
05
fd
f9
05
01
00
01
04
00
04
09
ff
fd
fb
06
fd
02
f9
03
f9
02
fa
f7
01
03
f9
fb
06
ff
06
fb
fd
05
f7
03
fa
fb
02
06
fb
01
ff
f9
fe
01
fb
fb
08
fa
ff
07
fc
f9
fb
f8
07
fc
03
05
fe
04
08
ff
03
fb
07
f7
fe
01
f9
f9
05
f8
00
09
f8
0a
08
fd
03
fd
fb
06
01
03
09
ff
ff
f8
f7
fb
fa
07
fc
fe
07
fb
01
f8
07
f7
06
ff
fc
fe
f9
fd
07
08
06
fc
fe
04
f7
f7
f7
09
04
fb
fd
02
03
01
04
01
fd
03
06
ff
02
f6
f7
f7
03
fa
04
01
03
f8
08
f8
fd
ff
02
ff
f7
fa
fb
0a
03
06
fc
06
fc
03
04
09
ff
ff
06
04
f6
f9
03
f9
f9
fc
06
f8
03
fe
01
f7
fc
05
f8
fd
fd
f7
06
f7
01
fe
06
03
f4
fb
05
fe
01
f5
fa
f3
f6
f9
fe
01
f7
fb
fc
06
fa
f6
fe
fd
fc
fb
fc
04
f7
04
fb
02
f7
f5
00
ff
02
f9
fe
03
07
03
fa
fb
fe
f6
f9
fd
00
fb
00
f4
00
f6
f8
fe
05
00
02
fb
fd
fd
f8
05
f7
02
03
f8
08
01
05
00
fa
05
04
02
00
ff
fd
06
f8
ff
fd
06
02
f8
04
fb
03
f4
f4
01
fa
ff
04
f7
fc
fd
01
f9
08
fd
ff
f7
fc
f5
f8
fa
f4
fd
02
fa
fc
04
fa
00
fa
04
fc
05
f9
f5
fd
f7
f7
04
05
f6
f6
00
f4
f9
00
00
fe
01
f8
fa
f9
f3
f8
fe
00
f8
03
f7
fd
05
03
06
00
f6
f9
fa
f6
fc
f4
f8
f2
06
fe
05
02
06
f9
f8
f8
f3
fc
01
02
fb
10
19
fc
10
2c
3b
1f
25
13
ef
f1
e5
f3
e3
cc
de
0a
11
fb
18
03
0f
12
0e
06
f1
de
d8
d1
cd
fb
23
16
ec
de
ed
ff
fc
ee
ed
d7
fd
01
f2
fd
15
fe
e7
dc
f3
f5
07
0b
01
fa
0c
14
2c
17
f8
e2
e1
ec
ed
f5
fa
16
20
23
1c
31
2f
19
f2
e1
f9
f5
ef
0b
1c
24
0e
27
26
1f
14
00
e6
ff
06
f8
f9
f7
10
0b
22
12
22
10
01
e6
cf
01
0e
fe
f2
ec
00
1c
17
f9
03
fb
f7
c8
bd
eb
f3
f9
fa
f0
01
ff
fe
03
d7
d3
e6
c2
d3
e3
ef
03
00
f4
e1
e6
e0
d0
a4
d6
08
24
0f
e6
e7
fe
ff
df
da
ce
d5
df
c4
fb
22
22
21
11
f7
02
08
e8
f7
10
3a
42
2a
fe
0b
0c
17
0d
09
1e
14
11
0d
0e
14
29
4b
f9
14
09
14
17
06
13
17
09
fb
f9
03
f5
38
0b
12
ff
fe
05
0d
0d
17
15
05
ef
f1
fe
1b
04
05
fc
0c
09
03
01
05
06
14
f5
f6
f6
11
fc
fe
0e
0a
0b
09
fd
f4
fb
07
11
04
05
0a
08
0d
0d
14
fe
f1
f8
02
f4
f4
1b
1b
03
fd
ff
17
19
ff
ee
ee
f8
fb
f7
ee
02
11
12
ff
0d
1c
12
fc
ee
f4
f7
01
f9
f7
f8
05
10
0c
16
0e
0a
ea
f0
ed
fd
01
fe
fb
fb
fa
14
00
09
05
fd
e9
f5
eb
01
f7
fc
f2
f1
f5
ff
0b
06
fc
f3
e3
e0
e5
f5
01
f5
fc
ef
ee
ea
fe
fd
02
ff
ed
e2
e1
f0
ff
f2
f3
f4
dd
e4
e6
01
13
11
0b
03
f9
01
fd
fa
ea
02
04
03
05
ff
01
04
14
03
04
fe
0c
06
02
fd
10
1d
19
ef
fd
0a
0f
07
04
04
05
0a
09
04
fd
0a
14
e9
01
06
06
0c
06
08
04
fd
f8
fc
05
fc
f9
05
f7
02
0b
fb
00
0a
08
0a
f8
09
18
fb
e6
03
06
f9
03
f7
02
03
06
05
fc
06
f6
08
03
ff
03
05
f8
06
03
09
00
01
02
08
f8
05
09
ff
f9
07
06
fe
02
fd
fc
0a
04
01
06
06
05
04
f9
fc
08
03
03
fa
fb
fc
05
fc
07
f9
fe
08
fc
00
fd
03
fb
f9
fc
04
fd
f9
fe
fc
08
ff
04
09
f9
04
01
08
00
03
f7
09
f9
07
fa
02
00
07
f7
08
09
03
09
08
00
05
01
02
f9
fd
fb
fa
fa
fc
02
00
04
04
fd
07
f9
fb
09
05
05
f7
07
f8
01
fb
04
fb
f8
f7
f9
fc
00
fd
fd
02
08
fd
08
fc
08
fc
fb
fd
fe
fa
fa
f8
00
f7
fa
01
ff
fe
01
fd
f7
00
03
07
fc
f9
f8
04
f7
08
04
07
fc
06
fc
ff
07
fb
ef
01
03
ff
f8
fe
04
f8
f8
fd
02
fd
03
01
28
1a
f9
0f
0d
3a
41
1d
21
b8
c2
1c
5a
42
32
fc
0a
22
0d
14
38
1a
3b
03
f7
00
24
37
0a
01
ef
20
24
f6
df
eb
40
3d
0b
da
b2
f1
ea
f6
fd
26
26
fd
04
f0
16
63
4a
17
de
ec
d5
f8
16
1d
c6
ef
13
01
ea
1f
48
4e
21
f1
d5
03
05
ec
b4
00
13
02
e9
19
62
51
29
1d
28
04
03
f1
da
12
12
ff
cb
e6
4b
41
3b
27
3c
01
07
ce
f1
18
06
05
c1
c6
46
2d
2c
26
47
fd
09
e2
f3
18
11
20
f5
9f
33
fd
28
24
2d
00
07
d1
d1
0e
19
2c
18
c9
38
eb
18
38
16
f3
1e
e1
94
c5
f5
1a
1f
99
f4
d7
0e
17
f9
fd
2b
26
d0
8d
db
0a
0a
b5
28
35
16
d6
a1
fe
14
13
fa
a5
f4
1c
f3
cf
06
09
0a
e3
ab
ee
0f
0b
05
02
fa
01
fe
f6
ff
f4
f3
f7
16
dc
d9
f7
e5
cf
c3
d1
d1
ec
14
08
10
0a
18
31
12
f3
f1
fb
e5
ff
ea
f3
f1
f0
06
2a
2d
2e
2b
fc
e1
f5
06
1a
14
07
0b
14
0e
1f
08
fb
0f
fb
ea
f8
18
2b
1d
0b
fc
eb
00
05
f1
eb
e1
e2
00
12
1b
19
14
00
11
f2
e5
e3
e3
d4
d4
e0
08
19
02
03
0a
fc
ee
e8
f2
d5
ce
df
e9
02
18
03
fb
0e
11
16
f3
f5
ea
f1
e0
ed
f3
18
3a
fa
f8
09
00
0f
fd
f1
e4
06
0b
0b
10
47
39
20
04
0e
02
18
11
f6
0d
02
2c
28
21
43
28
1f
15
0a
fe
1b
10
17
31
35
55
20
fb
d8
f0
10
1b
0a
08
22
23
34
1e
1b
3c
f7
d4
cd
d7
f2
07
08
f6
11
09
ea
c1
c5
d6
f9
f5
f3
e3
f4
ed
e4
e9
ef
f2
fc
fc
e4
b9
13
fc
ec
f7
f3
fa
e7
f1
f7
03
01
06
03
c8
f9
ed
ff
0b
05
fb
f4
f9
fa
fb
0a
0c
f9
e8
03
fd
f8
f4
f1
f7
fe
00
fe
00
02
05
02
f3
08
0a
fe
f1
f6
08
11
12
0b
f8
f0
07
06
02
08
fb
f7
fb
02
07
0e
10
07
0b
f2
ea
f3
f8
05
ef
e0
ff
0d
07
0e
04
0a
15
ff
eb
ee
02
f4
ee
e6
01
0b
12
0d
08
0d
08
0c
fd
f8
f4
ee
ec
06
13
1a
0a
03
06
09
13
13
00
f4
01
fd
fc
15
1d
0f
0e
0c
02
04
0b
09
14
09
fe
07
0f
1b
24
25
13
ff
07
0e
19
10
1e
1d
10
05
ff
0e
0c
22
1a
0a
07
04
21
1a
26
23
1a
04
f3
f0
e7
f7
12
11
02
05
17
0e
06
06
09
08
f2
f9
f9
f3
0b
0b
ff
07
0c
00
ef
e4
ef
0c
0e
00
f5
ff
f6
fb
f0
01
04
0b
ff
07
ef
24
0e
02
f2
f4
fd
02
03
08
04
ff
fc
05
04
fe
04
f9
ff
00
f9
f7
f8
06
02
ff
e8
07
1d
04
08
00
01
f8
fa
f8
09
00
03
ff
05
07
fb
f9
fd
01
fe
04
04
02
f8
fa
05
fc
f9
fe
04
02
fc
08
fe
08
09
f9
fe
07
f7
07
08
09
fc
08
02
08
04
00
f7
fa
08
04
fd
09
f9
07
09
fc
03
06
fe
02
05
fd
fb
03
f8
f8
00
fb
03
02
f8
fa
09
ff
ff
fc
04
04
04
fc
05
06
09
f7
04
fd
fd
f9
03
f8
fa
00
04
04
06
f6
fb
02
f9
fb
fc
05
04
fc
fb
02
03
09
07
fd
ff
05
02
05
09
03
ff
f7
fc
05
09
03
f9
f8
09
fd
fe
fe
06
09
03
06
08
f7
fc
fb
05
07
0e
07
f7
fe
01
ff
07
fc
08
fd
01
02
08
fe
fd
07
09
fb
03
00
f7
f8
fe
fe
01
fb
02
09
11
06
fa
08
fe
0a
fd
01
02
02
01
fe
fd
07
f7
ee
f9
f9
f4
c8
b7
d3
d2
39
4c
ea
b2
b3
d7
fa
fb
da
fd
f8
d3
ea
c3
fc
12
0c
db
c8
ee
09
15
e4
d7
1f
22
25
c0
c5
ee
21
4d
04
20
fc
03
db
d4
0c
ff
13
eb
94
a1
ee
20
12
31
0e
ed
df
2d
1e
ea
01
19
de
a8
b1
ed
07
28
0f
f4
1d
3d
05
df
09
24
ee
97
b5
e2
dc
d6
02
f9
11
27
e1
e7
00
42
14
ac
c0
d1
de
c1
f6
f9
25
07
e3
f7
ef
37
3d
c2
cf
d2
de
bd
0c
fb
1f
0c
dd
e4
e6
15
64
d3
f7
ea
d4
d2
0b
04
2d
38
fb
e8
ce
e8
48
d8
0e
ee
c8
ec
0f
e3
26
70
45
f8
db
e5
63
08
22
ef
e8
05
04
d6
e1
35
6f
24
f8
ed
52
cc
db
f9
1d
54
0a
ed
f9
12
5b
1d
e6
04
32
f2
0a
f7
1c
53
17
f5
f0
f3
0b
0d
f2
00
0f
f7
0a
18
0f
ec
e2
db
03
e3
cb
c5
df
e0
ee
0f
17
10
0c
1d
30
19
ff
ed
08
ee
f4
f5
f3
e9
f7
04
2a
28
2a
1c
07
ea
f1
0c
11
1a
02
0f
0f
16
1f
fc
f3
02
00
e0
f6
07
1b
1b
0e
ef
f1
06
f9
f5
eb
dd
dc
05
17
17
19
0e
0b
17
f1
e4
d5
dd
d2
e2
e0
0d
10
fc
07
0c
f8
ef
f1
ef
d9
d6
d6
e1
03
13
f4
fc
09
01
07
f6
f9
ea
ef
e1
ed
ff
18
32
00
f4
fc
0d
1a
ff
f0
ed
07
07
0a
19
47
44
21
03
09
09
0b
00
f7
12
0e
24
28
11
4f
27
25
11
04
07
1d
17
18
2f
33
53
2b
ee
d7
ee
1c
18
0b
00
18
22
35
1d
17
39
04
d0
da
dd
f9
06
09
fb
19
05
f5
c4
b9
e7
fc
f4
e6
f0
e8
fa
ef
de
f0
01
ff
f5
dd
b8
0a
f1
eb
ef
eb
ec
f5
f3
f1
ff
01
09
ff
c6
f4
f7
01
06
0d
f2
fa
f3
fe
fc
1a
10
04
e7
08
02
fc
f4
01
fb
ff
08
01
f8
01
0e
06
02
06
08
01
eb
ea
fe
09
0f
0b
ff
f8
0a
06
f5
ff
f2
e9
ed
03
11
0d
13
08
09
f2
ef
fd
05
f3
e7
ec
f8
1f
0d
08
03
11
0a
00
ee
e8
fe
fb
ed
f0
0a
18
0b
0c
00
02
10
12
03
eb
ff
f2
eb
fb
13
11
13
0c
ff
0c
11
14
0b
f2
f5
ee
f2
07
1b
1c
1b
02
0d
11
11
15
11
05
ff
fb
06
11
1e
1d
22
07
0a
12
16
0a
17
1d
12
03
11
11
1c
1b
25
11
07
0a
1c
14
1e
1e
1e
00
fa
eb
f0
02
0d
0e
07
01
18
0a
05
fc
04
0a
f8
eb
f1
ff
fc
09
fc
fd
09
07
ef
df
df
1b
fd
04
fe
f9
07
fa
f9
01
fc
0c
00
f8
fc
1a
13
fe
00
f6
f8
fb
fb
02
03
fd
fd
fc
0c
04
00
07
00
02
fa
f9
f8
fc
06
f7
f0
06
2b
fd
fc
fb
fe
fd
fb
09
08
09
09
fc
04
fc
0c
fd
f9
fb
00
f8
01
00
f7
08
fd
09
ff
06
06
f9
05
07
01
f7
fd
02
f9
09
fa
fc
04
f7
06
00
01
f8
f8
f9
f6
09
fd
02
01
fb
f8
f8
03
fe
05
07
ff
01
ff
f9
07
f8
ff
0a
fd
02
06
f9
02
fc
fa
f7
06
fc
08
09
00
08
fe
06
ff
fa
fb
fa
03
00
08
02
fe
ff
06
fb
0a
ff
02
09
f7
07
08
08
03
fd
f9
07
02
07
06
fb
06
01
f7
01
fb
fc
fd
f7
fa
08
fb
fe
ff
08
05
fc
00
fc
01
fb
fa
fd
f9
fc
03
fe
f8
f9
07
06
f9
ff
05
f7
02
04
09
04
fd
0a
ff
00
02
f9
08
03
07
03
f8
04
ff
07
04
02
04
06
19
08
09
f8
f9
f9
f8
05
06
01
fe
f7
f7
02
eb
e7
fe
f3
eb
b9
bc
d8
d3
3f
53
ec
ac
b2
cd
f6
ff
e5
ef
ec
c2
e2
ca
ec
07
0f
ec
cd
f5
0a
07
e6
e4
16
1e
29
c2
cc
f2
1f
4e
07
22
0a
08
e9
d5
06
03
20
e4
9a
9c
e6
16
1f
38
00
e1
ed
42
1c
eb
f6
16
e8
a2
b2
ef
12
29
04
fc
16
42
07
e8
03
22
eb
94
a5
d3
dc
dc
f8
f2
12
32
ec
e2
ff
37
1c
a2
bf
c5
d9
c9
fe
fa
33
10
e2
f5
e9
3d
3d
bb
c6
d5
cc
b3
07
f7
1f
0d
e4
ed
ec
13
5f
ce
06
e2
da
d3
11
fc
3b
36
ec
ec
d5
eb
49
c7
0e
e4
c8
ec
11
e4
24
69
4e
08
dc
e6
6a
19
2e
fa
e8
10
11
cf
e0
29
7f
29
f5
f8
50
ca
cd
fd
29
64
fd
ea
f3
0e
54
17
e9
06
3f
f7
0c
ec
14
56
17
f7
e9
f0
00
0d
f5
0b
03
06
04
09
15
f4
06
f7
05
08
f9
fd
06
01
04
02
ff
01
04
06
fa
06
f8
06
02
01
05
fb
02
ff
01
07
fd
06
06
fe
f7
fa
03
fa
fc
02
02
02
fa
05
03
fb
03
fe
ff
01
04
ff
fc
02
02
ff
09
fd
f6
fa
03
09
f8
fd
fc
06
fa
04
f8
f8
fe
04
fa
fd
fd
fa
00
07
fd
f7
08
fa
fd
00
f7
09
f9
fc
fe
01
08
05
07
06
fe
fc
02
f7
fe
ff
fd
01
fc
f9
fb
08
f6
fe
09
ff
03
03
02
08
09
fe
ff
09
f6
f7
07
fa
03
fd
f9
09
03
fb
01
fe
fc
05
fe
fe
f8
00
06
04
03
03
07
fe
f7
fb
02
07
08
fe
fa
09
f6
0a
f8
fe
04
01
08
00
f7
06
fe
09
06
01
05
fb
f7
f9
fd
f9
f7
05
fd
06
ff
fc
f7
f7
06
03
ff
fe
f7
09
0a
fa
01
f8
f9
00
fa
f7
fb
f7
03
fa
08
05
09
f8
05
08
01
ff
05
03
fc
f7
fa
05
07
01
fc
04
fe
03
f9
05
fc
02
02
0a
09
f8
05
f8
fb
04
f9
08
04
01
05
f8
02
04
fc
fd
04
08
fc
06
05
fa
f8
ff
06
f8
f9
07
fa
f9
00
09
06
05
01
fb
f8
05
03
03
fc
f7
01
fe
ff
01
fa
fa
fd
04
fa
09
f7
fa
03
f7
fb
05
f9
03
fb
fb
02
01
09
02
02
fb
08
00
06
f8
05
08
06
08
fc
f9
03
04
fa
fd
00
ff
05
07
03
fc
fa
08
01
fb
f9
f9
09
fa
f7
f9
fb
00
f9
04
fe
fc
fa
fd
09
00
03
f7
06
02
ff
00
fc
f9
fb
03
08
f9
04
fb
07
01
f7
f8
02
05
03
03
fe
fb
02
f8
05
fc
f7
01
04
f9
fa
fe
fc
08
01
fd
f8
f9
03
fe
01
02
07
00
04
f7
07
f8
fd
f6
05
fd
f7
fb
05
06
07
f7
fc
02
ff
fb
09
fa
06
06
f8
fa
fa
07
f8
00
fd
fe
fa
f8
f8
ff
01
02
03
fc
05
06
f8
08
ff
ff
f7
05
04
02
04
f8
0a
06
fd
05
fd
fd
ff
06
05
fd
f8
00
fc
ff
05
06
01
04
02
fc
06
f9
ff
fc
01
08
03
ff
f7
f9
fe
fb
02
f6
09
fd
06
07
08
fe
00
05
f9
ff
04
00
f9
01
fe
06
f9
01
ff
00
09
00
00
f7
fb
f8
01
fe
03
08
02
f9
fa
fc
fb
02
f7
f9
fe
f9
06
03
07
04
fd
ff
05
f7
02
f7
04
fd
03
04
00
01
fc
00
06
08
fd
02
02
04
03
03
f9
fe
fb
08
fc
04
03
03
02
ff
fd
09
02
07
03
09
03
fd
02
f9
06
f9
05
03
f6
fd
fe
fd
03
fb
08
fe
05
fc
fa
08
f7
00
fb
fc
ff
03
ff
01
09
02
06
fd
fe
f8
fb
fc
02
fe
f8
fd
09
fc
f9
04
fd
fe
f8
f9
02
06
fb
fd
03
09
fe
f7
07
f7
fb
f9
04
06
09
01
fa
07
07
03
03
f9
fe
09
01
f7
09
06
07
05
04
09
04
f7
fb
03
f8
f9
f9
fa
04
06
fb
fb
fe
fd
fd
ff
09
f7
02
fc
fa
03
06
09
fb
ff
f8
fb
01
05
fe
06
00
fd
02
08
04
fc
fc
09
08
07
fa
f7
f9
03
09
fc
f6
fa
04
07
fe
00
f9
fc
fa
06
fe
fc
ff
04
fb
ff
04
ff
03
fa
ff
fb
09
f6
fb
fc
04
fc
fa
ff
fd
09
06
08
f8
fe
f9
09
06
f8
f9
05
fb
03
f8
f8
fd
f8
06
f9
fd
f7
09
02
fa
fe
03
fd
08
fe
09
05
07
00
fd
04
06
01
02
08
fb
fe
01
ff
fa
03
02
fa
ff
01
ff
03
f7
ff
07
00
ff
fd
ff
ff
fb
f9
ff
0a
07
00
04
02
fb
03
04
ff
06
04
fb
03
04
08
f9
f7
fc
01
f8
fe
f9
f9
03
05
0f
1c
f8
0f
37
3e
2b
1c
10
f0
f0
de
ea
e8
c5
da
0a
03
f7
11
03
18
05
07
0a
f2
d0
dc
cd
d3
03
16
0f
ef
e9
e6
03
eb
f4
ea
d6
fe
fc
f2
01
12
08
f3
e4
e7
e9
15
0e
f7
f9
16
12
2a
20
fe
ee
ef
f1
ee
fb
f9
13
16
1f
1b
2e
29
1f
e7
ea
02
fe
f7
01
0e
12
05
27
30
19
1b
00
e9
03
0a
fb
f0
f4
12
06
22
1d
1a
15
fe
e6
c3
ff
fe
ff
f0
e5
fb
1b
19
01
00
f3
ed
c6
bc
f0
fb
fe
f9
f5
f1
03
fc
f8
e4
d3
e0
c5
dd
e3
ea
fd
ff
f4
eb
e9
d1
c9
b0
d7
11
25
14
ea
e8
f5
fe
e1
da
d5
d5
e6
cf
06
2e
2a
2c
08
fb
03
05
ea
f9
11
3b
3c
28
0d
15
15
13
1b
0c
13
20
0b
0c
0b
09
2a
4b
f6
04
13
1a
0d
19
0d
18
0f
01
01
01
f8
2d
0a
0b
03
f9
fe
07
07
0c
04
04
ea
ea
04
17
04
fd
05
0c
10
08
05
03
0d
0b
f9
f1
ff
0a
09
06
0e
12
15
02
f8
f9
f6
15
14
ff
f7
00
02
11
19
19
04
f6
f4
00
f4
fe
16
1e
0f
09
0a
13
22
02
e7
f4
fc
f8
fd
f7
09
14
10
04
0c
16
10
04
f7
f1
04
00
fc
f4
02
08
18
07
11
0f
ff
f4
e6
ee
07
f9
f6
ee
f3
f7
10
0e
15
05
fe
e7
e1
e8
fc
07
f7
ef
f9
e8
05
01
ff
f7
ef
de
e6
f2
00
ff
f7
eb
f7
e7
e3
f0
f1
f4
fd
ed
dd
dc
fa
02
fb
ed
e2
e5
d8
e4
ff
14
1b
12
ff
f9
f3
0b
f2
e7
f8
02
fe
fd
fd
05
09
18
03
03
03
02
05
f3
fa
10
17
1f
e4
fe
fb
0e
14
0a
09
0f
0e
06
03
02
06
11
ec
f4
04
0e
01
fd
03
07
0a
06
07
fd
fc
f7
fe
fe
f9
07
06
03
f9
fe
fb
f8
07
1d
f2
d9
fb
07
09
f7
fc
00
f7
f7
fa
07
02
fb
ff
06
f7
04
00
f7
08
fc
07
01
02
ff
f8
05
fd
07
09
fd
01
03
fd
04
fa
06
fc
00
fd
01
07
02
fd
09
09
fc
fa
f9
02
09
03
04
f7
04
05
fd
fa
ff
f8
09
fa
09
f6
06
fc
f9
03
09
fb
01
fa
06
09
fd
09
05
01
fc
07
00
fc
f7
f7
0a
fb
f9
06
fd
f9
02
ff
04
09
fe
05
fd
fd
03
fe
03
02
f8
fe
09
00
09
07
fd
fc
03
fe
ff
ff
fa
06
fc
f8
f8
fa
02
f7
04
fa
00
fe
fd
06
fd
03
07
05
04
ff
fb
f9
09
f7
fe
08
f1
f8
09
fe
04
04
fd
f7
ff
f8
fb
f8
04
f9
06
08
05
06
02
06
09
02
04
06
00
08
02
fa
e4
02
f8
f7
09
07
fd
05
03
09
03
04
f9
03
1a
16
03
0e
20
42
50
30
2d
c4
b1
27
5c
52
39
00
02
1c
12
13
36
1a
3d
10
e8
fa
23
35
11
f8
fa
26
29
e9
d8
e7
45
3b
19
de
b5
f8
ed
01
f2
23
2b
ec
05
e3
1b
6c
55
1a
e1
db
d4
f7
13
23
ba
e0
13
0f
f1
16
5c
5d
1c
f3
be
fb
12
de
a9
fa
1d
fc
de
0b
6a
5b
2d
22
23
0e
0b
ea
ce
24
0f
fe
c3
e6
55
3b
3e
27
30
06
01
c6
f9
1f
01
14
ce
bc
41
30
37
37
49
fd
03
e2
f7
27
22
17
ee
9f
33
fc
1e
2f
30
fd
02
d3
c6
0b
24
2d
1f
b9
38
ef
1f
3f
19
ed
1d
dd
8d
c1
00
1f
25
94
f5
d6
15
23
f7
f1
39
18
d3
86
e1
fc
0e
b3
39
3c
0b
e4
ab
ff
0d
17
ed
a5
ec
18
f6
d2
05
03
14
f2
a5
e6
12
1c
12
04
f9
10
ff
f8
05
ef
fa
eb
13
08
19
fd
0b
29
3a
2c
1b
0c
e6
ed
e3
e4
f0
d2
e8
0c
0e
f7
20
fe
1b
06
06
04
ef
d2
e7
d1
d1
f7
18
0b
f3
e3
f5
0a
f0
f9
e4
da
f5
fb
f2
f6
11
01
e9
d6
f1
eb
09
0d
02
fe
09
12
29
25
fa
e6
e4
ea
eb
f4
fc
18
15
24
17
27
29
25
ec
ea
fa
f1
00
0d
14
23
0f
2e
23
19
21
f7
e7
fb
09
f2
f1
ef
06
0b
1c
1d
23
16
fd
e2
c9
fe
ff
02
f7
f6
04
12
1b
fc
fb
fb
ef
c9
c3
ef
ff
fd
f2
f3
f8
07
ef
f6
e1
d9
ed
b4
d1
da
ec
ff
02
e8
e9
e6
da
c5
ab
e5
18
32
11
e4
f2
f8
06
ef
d9
cc
e1
dd
c3
08
29
2c
26
10
f4
03
03
ee
f5
0d
31
3c
1d
0f
0f
1d
20
15
11
0c
17
14
05
01
0c
20
44
f5
0d
12
09
10
14
0f
19
05
fe
fd
fa
02
3d
15
0e
09
03
f5
14
14
12
05
06
f2
f4
f9
1c
f7
01
0b
0e
04
03
fb
fd
03
0f
04
f5
fd
0a
fc
06
fe
13
10
00
f8
fd
ff
0a
11
04
fb
fe
07
0c
19
0f
fe
fb
fe
f5
f9
fa
18
0a
11
0a
0c
19
18
07
ea
f3
fb
fd
f6
fb
09
0d
09
ff
0a
12
1d
fd
ef
fd
fa
05
f8
f3
fb
02
1b
09
16
1a
05
f0
f0
f0
02
f7
ff
fc
f6
02
0c
0f
05
ff
f2
ee
f1
ee
fb
03
ef
fb
f6
f6
f5
01
ff
02
f8
e1
ec
e3
fb
00
f1
f8
fc
e8
e7
f5
01
f9
f9
f3
ef
ef
00
07
fb
e1
f4
e1
dc
e9
f5
04
14
15
fc
e8
fe
04
fc
ed
fd
fb
0f
03
f7
0a
16
07
0b
fa
f9
09
07
04
02
0a
19
1d
ef
ff
02
04
10
07
08
07
07
02
ff
fb
01
03
e3
ef
03
02
01
03
fe
fc
08
05
00
f6
06
08
07
06
08
fc
f7
f9
0a
f7
01
04
0e
16
05
e1
06
fe
05
fb
09
f7
f8
06
00
02
fb
fd
06
07
03
02
fa
07
00
01
fd
07
07
f9
01
00
fa
fe
fb
05
fd
fb
fd
f7
fa
fb
09
f9
05
ff
06
fc
00
fd
07
f9
03
09
09
00
02
08
08
ff
ff
05
f9
fd
ff
f8
fb
f7
fc
f7
04
fd
fe
04
f9
fe
fb
fb
05
04
fb
fd
fb
ff
00
00
fe
00
02
ff
fd
03
07
03
f9
fd
f8
07
f9
fb
05
07
04
fc
06
02
f7
ff
f7
fd
02
f7
ff
06
00
08
fe
00
f8
fd
02
07
09
ff
08
01
07
06
fa
09
02
fb
f7
00
fd
08
03
fb
02
fa
09
05
05
04
ff
f1
01
f6
fb
01
07
00
fd
07
03
fa
04
02
f8
04
fa
09
fa
fe
fc
01
08
fb
03
fe
fc
00
07
eb
fc
07
fb
02
04
01
01
fa
fe
fe
00
ff
fe
1a
21
02
15
18
3a
49
26
26
c3
b9
1a
57
4c
25
fd
06
16
0a
07
2f
18
36
05
ee
fc
16
2d
10
fe
f4
1c
21
ed
e2
dc
43
32
19
e2
b4
f6
ed
02
01
25
2d
f0
01
f7
19
6b
57
10
eb
ec
d6
f7
1b
22
cb
eb
17
0e
f8
1a
4c
46
18
ed
d5
03
02
eb
ba
f8
1c
00
e0
18
63
41
1f
19
1a
0e
08
ee
d8
17
0d
00
c3
ec
51
33
2f
1d
32
10
0a
d6
fb
1c
11
05
ca
c1
36
32
34
29
42
08
02
e1
f5
17
0e
18
f5
a4
2f
fe
27
2b
1e
f2
06
cb
c7
17
1a
2c
0e
c0
30
f6
18
2f
1a
ed
17
df
9b
ba
03
17
10
9e
ec
d5
0c
1c
ee
f3
2a
23
d8
9e
e1
fe
13
b3
36
2b
18
df
aa
f6
15
0a
ef
aa
e5
0e
02
d5
0a
fd
0f
ec
af
ee
10
1c
03
fe
04
06
07
ff
00
ff
f5
f4
11
