00
00
fe
fe
fd
fa
00
fc
fd
01
fc
02
04
00
01
04
01
00
00
00
00
00
00
ff
ff
01
00
00
00
00
00
00
00
00
00
00
00
00
00
00
00
ff
00
00
00
00
00
00
00
00
00
00
00
00
00
00
00
00
00
00
00
00
00
00
00
00
00
00
00
00
00
00
00
00
00
00
00
00
00
00
00
00
00
00
00
00
00
00
00
00
00
00
00
00
00
00
00
00
00
00
00
00
00
00
00
00
00
00
00
00
00
00
00
00
00
00
00
00
00
00
00
00
00
00
00
00
00
00
00
00
00
00
00
00
00
00
00
00
00
00
00
00
00
00
00
00
00
00
00
01
fd
ff
00
00
00
00
00
ff
00
ff
00
00
00
00
00
01
00
00
00
00
00
ff
00
00
00
00
00
00
00
00
00
00
fd
fe
00
00
ff
00
00
00
00
00
02
fe
ff
ff
00
01
01
00
01
ff
01
00
00
01
00
00
00
00
00
01
01
01
01
ff
01
00
ff
ff
00
00
00
00
00
00
00
00
ff
01
01
00
01
00
00
01
00
00
00
00
00
00
00
00
00
00
00
00
00
00
00
00
00
ff
00
00
00
01
fe
ff
01
00
00
00
00
00
00
00
00
00
01
00
fd
00
00
00
00
00
00
00
00
00
00
00
01
00
00
fe
fe
00
00
00
00
00
00
00
00
01
01
02
01
00
fd
fe
00
00
00
00
00
00
00
01
ff
fe
02
01
01
00
01
00
00
00
00
00
00
00
00
ff
00
02
fc
fe
01
00
00
00
01
00
01
00
ff
fe
fc
fb
fe
fe
01
ff
00
00
01
00
01
01
00
01
00
05
fe
00
fd
02
00
00
00
00
00
fd
00
02
fd
01
02
fb
03
00
00
00
00
00
ff
ff
00
ff
fd
ff
00
00
00
00
00
00
04
fd
00
00
00
00
00
00
00
00
00
00
00
f7
fa
00
00
00
00
00
00
00
00
00
00
00
00
f9
fc
00
00
00
00
00
00
00
00
00
00
00
00
03
03
00
00
00
00
00
00
00
00
00
00
00
00
ff
fe
00
00
00
00
00
00
00
00
00
00
00
00
00
00
00
00
00
00
00
00
00
00
00
00
00
00
00
00
00
00
00
00
00
00
00
00
00
00
00
00
ff
00
00
00
00
00
00
00
00
00
00
00
00
00
ff
00
00
00
00
00
00
00
00
00
00
00
00
00
00
02
00
00
00
00
00
00
00
00
00
00
00
00
00
ff
00
00
00
00
00
00
00
00
00
00
00
00
00
01
ff
00
00
00
00
00
00
00
00
00
00
00
00
00
00
00
00
00
00
00
00
00
00
00
00
00
fc
fc
fd
00
00
00
00
00
00
00
00
00
00
00
04
fd
03
06
04
fe
fd
01
fe
01
00
f9
03
07
ff
07
02
00
01
00
00
00
00
00
ff
ff
00
f9
03
f9
ff
00
00
00
00
00
00
00
00
00
00
03
00
fe
00
00
00
00
00
00
00
00
ff
00
00
01
f9
04
00
00
ff
00
00
00
00
00
ff
00
00
00
fb
fc
00
00
fe
00
00
00
00
ff
00
00
00
ff
fe
fe
00
ff
ff
00
00
00
00
00
ff
fe
ff
00
00
fc
ff
ff
fe
00
00
00
00
00
ff
02
fe
01
ff
fb
ff
fe
ff
00
00
00
00
00
ff
00
ff
02
04
02
fd
ff
fe
00
00
00
00
00
00
ff
02
01
fd
00
01
fe
00
00
00
00
00
00
00
00
01
01
04
02
01
ff
00
00
00
00
00
00
00
00
00
ff
fc
fd
01
00
00
00
00
00
00
00
00
00
00
00
04
08
03
fe
00
00
00
00
00
00
ff
fd
fe
07
fb
12
f4
ec
fe
06
f5
f8
00
ea
ea
fd
02
03
03
0a
ed
ee
f7
0a
e9
e0
f2
ee
e7
e1
f1
01
06
fe
e5
f0
e0
ce
df
e1
e7
f7
fd
ef
d4
f6
fb
05
f9
de
c6
ce
06
01
f3
e8
fd
16
ef
f3
f8
0b
f8
f0
01
04
fc
fb
f5
fb
e2
0f
e3
e0
f6
04
fc
f4
20
27
f8
03
fb
fa
ef
f2
ff
d2
ff
00
00
00
42
2e
1b
06
f6
fe
ff
f0
d8
d3
f9
ea
d6
e7
23
24
1e
18
00
f4
1f
10
d9
e9
db
12
eb
d3
c9
d3
f9
00
00
f5
1d
11
fa
eb
e4
4b
28
fc
bf
df
f2
00
00
fa
01
02
ef
dc
e2
3c
2b
09
f3
f9
fe
02
06
0b
f0
df
be
da
dc
12
2d
1a
12
1d
08
f0
e8
c4
d4
c9
d6
ef
09
08
0c
fe
06
ea
02
f1
e2
d2
eb
f7
e0
f0
ec
03
dd
fb
05
09
e9
de
df
e8
05
e8
fd
ef
06
1e
ff
fe
f7
e9
d0
dd
e4
d8
d7
f3
0d
29
2c
fc
e2
20
fb
ff
df
0b
06
fc
f9
fc
f2
07
f7
f8
df
eb
07
e3
0b
0c
2a
28
16
f0
e4
0f
0a
d1
bd
e7
e4
f1
fa
06
1b
43
48
0d
fd
ef
ee
bc
d2
d7
ce
d1
ec
f7
2a
37
20
1d
fd
dd
d7
d8
dd
e6
d3
f8
e2
e5
f3
18
21
28
f8
f5
f4
f7
ee
ed
ff
e8
ea
06
f0
11
17
06
1f
f3
00
00
fa
07
17
f3
f9
07
01
14
25
1c
fc
f8
25
fe
d4
e7
0b
1d
0c
f7
09
ff
21
33
2c
24
0f
32
08
de
e4
fd
0d
1d
eb
f8
17
2a
15
0b
1a
2f
11
e1
ec
f9
1c
11
11
0c
17
1a
09
fb
e7
26
fe
ea
da
03
f1
fc
fc
f3
fc
ff
f3
eb
eb
1c
e8
fa
d9
e0
fd
f7
f0
e6
ee
fe
ef
ef
06
02
14
fc
f1
f0
09
f6
04
fc
02
fc
e7
f7
e8
f8
ea
06
00
0e
fb
02
02
00
00
00
ff
00
05
e9
fd
f0
17
18
05
00
05
00
00
00
fc
00
fa
fa
f2
0e
0f
01
1c
19
00
00
00
00
02
00
f9
f8
0c
00
00
00
0e
10
00
f5
fe
f7
00
00
18
f3
04
0a
07
0f
00
00
00
fb
f9
e6
00
00
17
f4
f3
1a
0d
03
00
00
00
00
fb
f7
fd
0c
1f
16
0c
16
00
00
00
04
00
02
fd
e3
f7
00
f3
0a
f4
1e
00
00
00
0c
00
00
00
f0
fd
00
e3
f2
ed
0b
00
00
00
00
ff
fb
e9
00
00
f6
02
fa
f6
07
02
00
00
00
00
00
ff
00
00
de
ea
0b
ed
14
00
00
06
00
01
f8
00
f9
f9
00
f6
ea
e5
f4
16
09
1e
07
02
00
00
fc
e8
ff
03
ea
fd
f4
06
06
00
00
00
00
f3
00
00
00
01
08
f1
07
07
f3
e7
00
02
00
00
00
00
0e
12
f7
0b
08
06
fb
fb
19
16
00
fb
12
ee
0e
16
0f
ff
19
f8
06
f9
ed
eb
fc
e6
fa
0a
f1
06
ee
06
f2
16
19
31
1e
d2
e1
f9
01
08
f3
1c
06
02
1d
29
20
29
1d
cb
cd
e6
f3
06
0f
06
f8
02
1c
33
01
1e
08
ce
df
e4
fe
1a
17
12
20
11
30
2f
22
20
ff
d5
ff
e1
03
1e
03
07
1a
12
47
1a
04
22
1f
0a
df
fe
d4
ee
01
0a
f9
0f
1f
17
06
02
2a
0a
05
eb
e7
00
f5
0d
02
08
21
01
fd
f1
f2
e0
e1
ee
fa
e7
d7
e6
ef
02
fc
f6
de
d9
e1
e4
e1
fe
ef
dc
d5
fa
09
22
21
0b
02
df
e5
e4
f2
07
d5
c7
e5
01
f5
f4
18
13
2c
fb
00
e8
d7
fa
db
d6
f9
0c
f1
ef
f1
34
23
08
09
f6
c9
f1
0a
13
08
06
09
f7
f5
25
fc
ee
10
10
e6
e8
fb
0d
f1
0a
ff
00
00
00
00
00
00
fd
00
00
00
00
00
00
fd
00
ff
00
fe
00
fc
00
fd
ff
00
00
00
00
00
00
00
00
00
01
ff
00
fe
00
ff
00
00
01
00
fd
00
00
fd
00
00
00
fd
01
01
00
01
00
00
00
00
00
00
00
00
00
00
00
00
00
00
00
00
00
00
fd
00
00
ff
00
fd
00
ff
00
ff
01
00
00
ff
fb
00
fc
fb
00
fe
00
00
00
ff
fe
ff
00
fd
ff
00
00
00
fb
00
00
ff
00
00
fb
ff
00
01
01
00
00
01
00
00
00
fd
00
ff
00
00
00
fe
00
00
fe
00
00
00
00
00
00
00
00
fe
00
00
00
00
00
00
00
01
00
00
00
00
fb
00
fb
00
00
00
00
00
00
00
ff
01
00
fd
00
00
00
00
00
fe
00
fe
ff
00
00
fb
00
fc
00
00
fd
00
01
fb
00
00
00
00
00
00
00
00
00
00
00
00
00
01
00
00
00
00
00
01
00
00
00
ff
01
00
ff
fc
fe
00
00
fe
00
00
00
00
01
00
fb
00
00
01
00
00
00
00
00
00
00
00
00
00
00
00
00
00
00
00
fb
00
00
00
00
01
00
00
00
00
00
00
00
01
00
fe
00
00
00
00
00
fe
00
00
ff
00
00
fe
ff
00
ff
00
00
00
00
00
00
00
00
00
00
00
00
00
fe
00
00
fc
00
00
00
00
00
00
00
fe
fd
fe
00
fe
00
00
00
00
00
00
fb
fc
00
00
00
00
00
00
00
00
00
00
00
fd
01
00
01
00
00
00
00
00
00
fe
00
00
00
01
00
00
00
00
00
00
fe
fa
00
00
00
00
00
00
00
fe
01
00
00
00
ff
00
00
00
00
00
01
00
00
01
01
00
00
00
00
fb
00
fd
ff
00
00
00
00
00
fe
00
00
00
fb
00
00
00
ff
fb
00
00
ff
00
00
00
00
00
00
ff
00
00
00
01
00
00
00
00
00
00
00
00
00
00
fc
fd
00
00
ff
01
00
00
ff
ff
ff
00
ff
ff
01
00
fd
00
00
00
00
00
00
00
00
00
ff
00
00
ff
00
00
01
01
00
00
01
00
00
00
00
00
00
01
00
fb
00
00
00
00
00
00
00
00
00
fe
fe
ff
fd
fa
00
fd
00
00
00
00
00
00
00
00
00
00
00
fc
fd
ff
00
ff
00
00
00
00
00
ff
00
00
01
01
00
00
00
ff
00
00
00
00
00
00
00
00
ff
ff
00
00
00
00
00
00
00
00
00
00
00
ff
00
fd
00
00
00
00
00
00
00
00
00
00
01
00
fc
00
00
00
00
00
00
00
00
00
00
01
00
00
00
fe
ff
00
00
00
00
00
00
00
00
00
ff
00
ff
01
00
ff
00
fe
00
00
00
00
00
00
00
ff
fa
00
00
00
00
00
00
01
00
ff
01
01
00
00
fc
fc
fe
00
00
fd
00
00
ff
00
00
00
00
00
00
00
00
00
01
00
00
00
00
00
00
00
00
ff
00
00
00
00
00
00
fe
00
00
00
00
fc
fe
00
00
00
00
00
00
01
00
00
00
00
00
00
fb
00
fb
00
fb
00
00
00
00
00
00
00
ff
00
fe
00
00
ff
00
01
00
00
00
00
00
00
fd
00
00
00
00
00
00
00
fe
00
00
00
00
00
00
00
00
00
00
00
00
00
ff
00
00
00
00
00
00
fe
00
00
fe
fc
00
00
00
00
00
00
00
00
00
00
fc
00
00
00
00
fe
00
00
00
00
00
00
00
fd
00
00
00
00
ff
00
ff
00
00
00
00
00
00
01
ff
fe
ff
fa
01
00
00
00
00
00
00
00
00
00
ff
ff
ff
00
01
00
00
00
00
00
00
00
00
00
00
00
00
03
0f
0d
0b
f5
11
eb
ee
eb
f9
1c
f9
fe
33
00
f9
00
0c
01
ef
03
ff
ee
fc
f2
14
fc
fd
2f
0b
11
f8
de
fa
fe
e5
f1
e1
ee
0b
0f
10
12
14
e6
eb
f1
fd
f7
e7
06
fd
f3
f6
05
33
23
10
eb
00
08
00
f4
c9
d3
ff
00
ff
e0
0d
ee
e3
f0
04
11
fb
e9
c9
d1
d8
fd
f0
04
08
fe
ff
f7
00
04
ee
e9
d5
ee
e1
eb
00
00
fc
f8
f4
e7
f4
f6
fb
f3
f9
ec
da
e2
e7
ee
fe
eb
eb
ef
df
d4
ec
00
fe
ed
df
e8
d6
e3
0a
b7
e8
e7
f1
04
e4
14
f9
08
e9
00
f4
f5
0a
0c
ee
f7
d7
e4
d9
f1
cc
d3
e6
fa
08
07
1f
1c
08
f0
c8
c2
c3
cc
cc
dc
e2
e4
ef
0f
1d
1a
f4
e0
e1
f7
dc
e0
d8
06
0e
f1
e6
0d
f7
14
08
ff
f6
0f
01
f3
fd
fe
1e
20
03
10
18
22
14
1d
2b
fc
ef
e5
c3
ed
f7
01
1b
2f
19
0c
1a
f2
08
ee
ed
f0
f2
f5
e8
01
03
0f
09
fb
fd
15
01
ff
01
fc
1b
0f
0d
ee
00
06
13
13
ff
e9
01
02
26
04
11
22
1e
06
f8
17
19
01
f3
f7
1c
10
12
0d
f6
29
13
21
fc
09
1a
f9
05
0d
2a
17
f4
08
e3
08
08
29
13
0e
0f
11
27
32
2d
27
ec
f9
e3
e6
24
21
20
08
f4
23
2c
1b
2c
03
e7
f9
e7
05
fe
24
1a
21
23
1c
22
37
0d
f7
f6
ea
e4
eb
f8
f9
19
2b
1e
21
0d
25
12
00
e6
df
f8
02
f1
fb
04
1a
37
1d
1d
1f
17
ea
fd
e4
ec
e9
f6
ff
1b
18
34
f9
0f
19
f2
f3
dc
de
d8
f9
f0
df
0b
23
1f
1f
20
01
f2
d7
d6
f3
ee
f9
d7
dd
12
1e
24
18
11
10
d7
f6
01
d9
00
eb
fe
f5
27
21
15
15
00
fc
0e
0d
f7
02
00
00
00
10
06
00
01
fe
07
20
fe
0f
ff
00
04
00
00
01
02
ff
13
0c
09
06
ff
00
00
00
00
00
00
00
00
03
f6
03
ee
eb
00
05
00
fe
f9
fe
e9
fa
fd
00
fa
20
00
f9
01
00
00
f1
ed
ea
e4
de
f9
00
fd
1c
1b
f6
00
00
fe
f8
f7
ed
fb
ef
f0
00
03
34
1a
ea
00
00
fc
ff
00
f8
00
00
00
00
15
21
06
eb
00
00
00
00
00
00
01
07
00
00
01
0c
0d
f7
f4
00
00
00
00
00
00
05
02
00
fa
fe
10
ee
00
00
00
00
00
00
09
09
00
02
0f
25
22
de
f6
fb
00
00
00
00
00
00
00
00
04
00
f0
e2
de
00
00
00
00
08
00
00
f9
f2
f5
fa
fe
df
00
00
00
00
00
00
11
02
00
f9
10
08
02
19
25
0a
0c
02
00
00
00
0d
00
00
ff
1c
fb
13
1f
f6
0d
09
fa
04
1a
1b
1e
2a
1b
0e
18
0e
22
f6
fe
14
04
09
fe
12
19
18
24
1f
fe
19
04
f2
e4
fe
00
0e
ec
f1
16
0a
2b
0a
06
e9
00
06
f2
fc
fb
ff
fc
ef
f8
ff
09
1a
f3
fb
fd
f6
05
dc
dc
ce
e1
e6
f0
fd
17
0f
f3
ec
02
fa
00
f0
de
d1
e8
f0
d2
ee
0c
16
e7
eb
f6
0d
f2
f8
f4
02
ef
ee
fd
0f
13
02
e5
d3
ea
eb
f4
04
07
19
00
ff
d7
e9
0c
02
dc
d9
f8
e8
ea
04
00
07
18
13
03
0c
20
f8
eb
cc
ff
fb
12
1a
0c
1c
12
02
fa
0c
16
1f
f5
de
fb
f8
00
fa
e5
f5
01
0c
00
f9
1c
16
fe
d9
dd
f5
f2
ea
03
fe
0b
f2
d6
ef
11
10
fd
e6
f9
1b
09
ea
15
39
2c
0f
d8
f1
11
ff
fb
03
14
18
07
0d
12
fd
0f
0e
f5
f3
ff
00
00
00
00
00
00
00
00
00
00
00
00
00
00
00
00
00
00
00
00
00
00
00
00
00
00
00
00
00
00
00
00
00
00
00
00
00
00
00
00
00
00
00
00
00
00
00
00
00
00
00
00
00
00
00
00
00
00
00
00
00
00
00
00
00
00
00
00
00
00
00
00
00
00
00
00
00
00
00
00
00
00
00
00
00
00
00
00
00
00
00
00
00
00
00
00
00
00
00
00
00
00
00
00
00
00
00
00
00
00
00
00
00
00
00
00
00
00
00
00
00
00
00
00
00
00
00
00
00
00
00
00
00
00
00
00
00
00
00
00
00
00
00
00
00
00
00
00
00
00
00
00
00
00
00
00
00
00
00
00
00
00
00
00
00
00
00
00
00
00
00
00
00
00
00
00
00
00
00
00
00
00
00
00
00
00
00
00
00
00
00
00
00
00
00
00
00
00
00
00
00
00
00
00
00
00
00
00
00
00
00
00
00
00
00
00
00
00
00
00
00
00
00
00
00
00
00
00
00
00
00
00
00
00
00
00
00
00
00
00
00
00
00
00
00
00
00
00
00
00
00
00
00
00
00
00
00
00
00
00
00
00
00
00
00
00
00
00
00
00
00
00
00
00
00
00
00
00
00
00
00
00
00
00
00
00
00
00
00
00
00
00
00
00
00
00
00
00
00
00
00
00
00
00
00
00
00
00
00
00
00
00
00
00
00
00
00
00
00
00
00
00
00
00
00
00
00
00
00
00
00
00
00
00
00
00
00
00
00
00
00
00
00
00
00
00
00
00
00
00
00
00
00
00
00
00
00
00
00
00
00
00
00
00
00
00
00
00
00
00
00
00
00
00
00
00
00
00
00
00
00
00
00
00
00
00
00
00
00
00
00
00
00
00
00
00
00
00
00
00
00
00
00
00
00
00
00
00
00
00
00
00
00
00
00
00
00
00
00
00
00
00
00
00
00
00
00
00
00
00
00
00
00
00
00
00
00
00
00
00
00
00
00
00
00
00
00
00
00
00
00
00
00
00
00
00
00
00
00
00
00
00
00
00
00
00
00
00
00
00
00
00
00
00
00
00
00
00
00
00
00
00
00
00
00
00
00
00
00
00
00
00
00
00
00
00
00
00
00
00
00
00
00
00
00
00
00
00
00
00
00
00
00
00
00
00
00
00
00
00
00
00
00
00
00
00
00
00
00
00
00
00
00
00
00
00
00
00
00
00
00
00
00
00
00
00
ff
00
00
00
00
00
00
00
00
00
00
00
00
00
00
00
00
00
00
00
00
00
00
00
00
00
00
00
00
00
00
00
00
00
00
00
00
00
00
00
00
00
00
00
00
00
00
00
00
00
00
00
00
00
00
ff
00
00
00
00
00
00
00
00
00
00
00
00
00
00
00
00
00
00
00
00
00
00
00
00
00
00
00
00
00
00
00
00
00
00
00
00
00
00
00
00
00
00
00
00
00
00
00
00
00
00
00
00
00
00
00
00
00
00
00
00
00
00
00
00
00
00
00
00
00
00
00
00
00
00
00
00
00
00
00
00
00
00
00
00
00
00
00
00
00
00
00
00
00
00
00
00
00
00
00
00
00
00
00
00
00
00
00
00
00
00
00
00
00
00
00
00
00
00
00
00
00
00
00
00
00
00
00
00
00
00
00
00
00
00
00
00
00
00
00
00
00
00
00
00
00
00
00
00
00
00
00
00
00
00
00
00
00
00
00
00
00
00
00
00
00
00
00
00
00
00
00
00
00
00
00
00
00
00
00
00
00
00
00
12
f9
de
e9
cf
f3
e7
e7
f2
ee
03
fe
f6
09
f7
d3
a4
a7
a0
a9
c7
b8
d4
cd
eb
f1
0b
02
fd
d9
b6
e5
ee
fa
e8
e6
d7
c5
bd
ed
f9
03
e7
c9
e9
f7
df
f1
ea
e6
e5
e7
c5
be
fe
10
ee
ed
08
07
e8
f2
fc
e9
f8
f6
00
e0
fc
1b
f7
fd
00
00
f8
03
ee
f4
d8
ef
00
d2
e3
01
fe
00
00
fe
00
17
0f
18
f7
ee
02
00
e4
e1
dd
ff
04
fe
ff
00
00
0b
04
fe
f7
ed
d1
ba
ae
dc
01
ed
fe
fd
f9
fb
ec
de
e4
b2
c6
c9
c0
bf
db
fb
ef
02
ec
f7
e3
f9
d5
cc
d0
16
00
f3
e1
d8
03
16
0a
f8
10
ed
f9
15
30
19
2b
1f
08
fd
04
fb
ed
fb
01
fe
14
29
29
3e
39
2f
23
fb
d1
bb
c5
e5
00
1a
2e
2a
2d
00
ed
0d
f3
f5
ef
e2
ce
db
02
0d
15
13
ec
ff
fb
fd
fe
d3
e0
e3
ee
ea
e4
f5
f5
0d
fd
0f
1d
04
f3
ef
fd
1b
24
f8
eb
f8
0d
0e
11
32
24
f7
e8
f3
15
34
26
21
f8
f4
06
18
01
f6
e7
ed
db
15
1c
2b
27
1f
f6
ec
cb
fa
f6
ea
d6
f9
03
19
f5
0e
05
fd
03
08
ea
cd
fe
e9
08
23
09
06
f6
fb
02
11
0f
0d
f4
d1
ec
04
02
23
03
1a
ff
18
22
14
10
0d
09
01
ec
2e
0e
20
12
1a
ff
01
1a
05
f7
0d
1c
0c
20
16
10
00
09
08
0b
1b
09
12
23
2b
21
1c
0c
d4
dd
ef
ff
09
01
08
f6
26
0f
0d
fb
f9
cf
df
d5
d4
f2
18
11
f9
f4
01
f7
e2
cf
e9
e4
00
ff
05
fc
eb
f3
03
04
fc
eb
f3
00
05
e7
16
fb
f7
ff
eb
00
f8
ed
e4
f9
fb
fa
0e
0a
f0
f1
ee
03
f5
f9
08
09
e7
e8
03
f7
04
fb
17
0d
e3
e7
fd
02
04
02
fa
00
fd
ff
ff
ff
13
f3
d8
ee
07
06
00
00
01
00
ff
ff
fa
fd
02
e9
ff
1e
0b
01
00
00
03
01
09
00
00
04
11
e6
06
14
fa
ef
f7
f8
00
00
00
01
12
e8
06
f2
25
01
e9
f5
00
00
f5
e4
ef
09
07
ed
e7
ec
0a
00
f4
fa
00
00
fb
f7
eb
05
00
eb
e0
f5
00
00
ec
ed
00
00
00
f0
f2
00
00
ea
e7
e9
ff
fa
e7
fb
ff
00
00
ee
00
00
00
e5
d6
eb
ef
f6
f6
eb
ff
00
fb
f4
00
fa
fe
eb
ec
ed
f7
ff
00
00
00
00
fd
00
f4
00
00
05
03
03
11
fe
00
06
00
00
02
00
00
01
00
fb
05
fa
14
1b
08
04
00
06
10
0d
04
09
10
0b
ec
dc
fd
18
01
00
00
00
ff
00
02
00
00
fe
17
0f
00
15
f3
09
1a
17
1e
09
03
0c
02
09
fd
06
0f
e1
e9
ee
06
f1
ee
f6
f9
10
02
02
0e
fe
fa
f3
eb
01
e9
ec
e7
f2
07
fc
01
0e
f5
ee
f2
21
08
01
fb
e5
18
22
18
e0
e5
03
0e
e3
24
1f
ff
ea
fc
fa
09
fa
24
20
f0
01
fe
05
21
07
e3
04
05
ff
e5
d6
ee
32
f9
07
0f
f7
0d
dc
dd
0b
fa
07
fb
f0
fa
01
17
f7
fd
fe
1c
fe
06
01
fa
07
16
e6
00
fa
f7
05
e6
fe
f3
05
dd
db
f3
f0
eb
f1
ec
0b
eb
e8
fc
f0
f1
0b
dc
d6
d9
ed
db
f2
e9
06
ec
e5
f7
f5
f1
d9
fb
e7
df
d2
d9
dd
f8
02
fb
fc
09
14
0c
09
f4
0c
fc
f5
f6
05
11
23
07
18
1d
2c
28
37
25
15
0f
0d
19
2c
3f
22
0f
09
00
04
33
27
f9
eb
db
e9
f6
2b
41
22
10
05
1e
14
fa
09
0e
00
ff
09
13
16
ef
f5
0d
1d
00
00
ff
00
00
00
00
01
00
00
00
00
00
00
00
00
00
00
00
00
00
00
00
00
00
fe
00
ff
00
00
00
00
00
00
00
00
00
00
00
00
00
ff
00
00
00
00
00
00
00
00
00
00
00
00
00
00
00
00
00
00
00
00
00
00
00
00
00
00
00
00
00
00
00
00
00
00
00
00
00
00
00
00
00
00
00
00
00
00
00
00
00
00
00
00
00
00
00
00
00
00
00
00
00
00
00
00
00
ff
00
00
00
00
00
00
00
00
00
00
00
00
ff
00
00
00
00
00
00
00
00
00
ff
00
00
ff
fe
00
00
00
00
00
00
00
00
00
00
00
00
00
00
00
fd
00
00
00
00
ff
00
00
00
00
00
00
fe
00
00
00
00
00
00
00
00
fd
00
00
00
00
00
00
00
00
00
00
ff
ff
00
00
00
00
ff
00
00
00
00
00
ff
00
00
00
00
00
00
00
01
01
ff
00
00
00
00
00
00
00
00
00
00
ff
ff
00
00
00
00
ff
00
00
00
fe
00
00
00
00
fe
00
00
00
00
00
00
00
00
00
00
00
00
00
fe
00
00
00
00
00
00
00
00
00
00
00
fe
01
fe
00
00
fe
ff
ff
00
00
00
00
00
00
00
00
00
00
ff
00
ff
00
00
00
00
ff
00
00
00
fe
00
00
00
01
00
00
ff
00
00
00
00
00
00
00
00
00
00
fe
00
00
00
00
00
00
00
fe
00
00
00
00
00
00
00
00
00
00
00
00
fe
fe
ff
00
00
00
00
00
fe
00
00
00
00
00
00
00
00
00
00
00
00
01
fd
00
00
00
00
00
00
00
00
ff
00
00
fe
00
00
00
00
00
00
00
00
00
00
00
01
00
00
00
00
00
00
ff
00
00
00
00
00
00
00
00
00
00
00
fe
00
00
00
00
01
00
00
00
fe
00
00
00
00
00
00
01
00
fe
ff
00
00
00
00
00
00
00
00
00
00
fc
00
00
00
00
00
00
00
00
00
00
00
00
00
00
00
00
00
00
00
00
00
00
00
00
00
00
00
00
00
00
00
00
00
00
00
00
00
00
00
00
00
00
00
00
00
00
00
00
00
00
00
00
00
00
00
00
00
00
00
00
00
00
00
00
00
00
00
00
00
00
00
00
00
00
00
00
00
00
00
00
00
00
00
00
00
00
00
00
00
00
00
00
00
00
00
00
00
00
ff
00
00
00
00
00
00
00
00
00
00
00
00
ff
00
00
00
00
00
00
00
00
00
00
00
00
00
00
00
00
00
00
00
00
00
00
00
00
00
00
00
00
00
ff
00
00
00
00
00
00
00
00
00
00
00
00
00
00
00
00
00
00
00
00
00
00
00
00
00
00
fe
00
01
fe
00
00
00
ff
fd
fc
00
fe
00
00
00
00
00
00
00
00
00
00
00
00
00
00
00
00
00
00
00
00
00
00
00
00
00
00
00
00
00
00
00
00
00
00
00
00
00
00
00
00
00
00
00
00
00
00
00
00
00
00
00
00
00
00
00
00
00
00
00
00
00
00
00
00
00
00
00
00
00
00
00
fe
ff
00
00
00
00
00
00
00
00
00
00
00
00
01
00
00
00
00
00
00
00
00
00
00
00
00
00
00
ff
00
00
00
00
00
00
00
00
00
00
00
00
00
00
00
00
00
00
00
00
00
00
00
00
00
00
ff
00
ff
00
00
00
00
00
00
00
00
00
ff
00
00
00
00
00
00
00
00
00
00
00
00
00
00
00
00
00
00
00
00
00
00
00
00
00
00
00
00
00
01
fe
00
00
00
00
00
00
00
00
00
00
00
fe
00
00
00
00
00
00
00
00
00
ff
00
00
00
00
00
00
00
00
00
00
00
00
00
00
fe
00
00
01
00
00
00
00
00
00
00
00
00
00
00
00
00
00
00
00
00
00
00
00
00
00
00
00
00
00
00
00
00
00
00
00
00
00
00
00
00
00
00
00
00
00
00
00
00
00
00
00
00
00
00
00
00
00
00
00
00
00
00
00
00
00
00
00
00
00
00
00
00
00
00
00
00
00
00
00
00
00
00
00
00
00
00
00
00
00
00
00
00
00
00
00
00
00
00
00
00
00
00
00
00
00
00
00
00
00
00
00
00
00
00
00
00
00
00
00
00
00
00
ff
00
00
00
00
00
00
00
00
00
00
00
00
00
ff
ff
00
00
00
00
00
00
00
00
00
00
00
00
00
00
00
ff
00
00
00
00
00
00
00
ff
00
00
00
00
00
00
00
00
ff
00
00
00
00
00
00
00
00
00
00
00
00
00
00
00
00
00
00
ff
00
00
00
00
00
00
00
00
00
00
00
00
00
00
00
00
00
00
00
00
00
00
00
00
00
00
ff
00
00
00
00
00
00
00
00
00
00
00
00
00
00
00
00
00
00
00
00
00
00
00
00
00
00
00
00
00
00
00
00
00
00
00
00
00
00
00
00
00
00
00
00
00
00
00
00
00
00
00
00
00
00
00
00
00
00
00
00
00
00
00
00
00
00
00
00
00
00
00
00
00
00
00
00
00
00
00
00
00
00
00
00
00
00
00
00
00
00
00
00
00
00
00
00
00
00
00
00
00
00
00
00
00
00
00
00
00
00
00
00
ff
00
00
00
00
fe
ff
00
ff
00
00
00
00
00
00
00
ff
ff
00
00
00
00
00
00
00
00
00
00
00
ff
00
00
00
00
00
00
00
00
00
00
ff
00
00
ff
00
00
00
00
00
ff
00
00
ff
00
00
00
00
00
00
00
00
00
00
00
00
00
00
00
00
00
00
00
00
00
00
00
00
00
00
00
00
00
00
00
00
00
00
00
00
00
00
00
00
00
00
00
00
00
00
00
00
00
00
00
00
00
00
00
00
00
00
00
00
ff
00
00
00
00
00
00
00
00
00
00
00
00
00
00
00
00
00
00
00
00
00
00
00
00
00
00
00
00
00
00
00
00
00
00
00
00
00
00
00
ff
00
00
00
00
00
00
00
00
00
ff
00
00
00
00
00
00
00
00
00
00
00
00
00
00
00
00
00
00
00
00
00
00
00
00
00
00
00
00
00
00
00
00
00
00
00
00
00
00
00
00
00
00
00
00
00
00
00
00
00
00
00
00
00
00
00
00
00
00
00
00
00
00
00
00
00
00
00
00
00
00
00
00
00
00
00
fe
00
00
00
00
00
00
00
00
00
00
00
00
ff
00
00
00
00
00
00
00
00
00
00
fe
00
00
00
00
00
00
00
00
00
00
00
00
ff
ff
00
00
00
00
00
00
00
00
00
00
00
00
00
00
00
00
00
00
00
00
00
00
00
00
00
00
00
00
00
00
00
00
00
00
00
00
00
00
00
00
00
00
00
00
00
00
00
00
00
00
00
00
00
00
00
00
00
00
00
00
00
00
00
00
00
ff
00
00
00
00
00
00
00
00
00
00
00
00
00
00
00
00
00
00
00
00
00
00
00
00
00
00
00
00
00
00
00
ff
00
00
00
00
00
00
00
00
00
ff
00
ff
00
00
00
00
00
00
00
00
00
00
00
00
00
00
00
00
00
00
00
00
00
00
00
00
00
00
00
00
00
fd
00
00
00
00
00
00
00
00
00
00
00
00
00
00
fe
00
00
00
02
00
00
f9
fd
00
01
00
00
00
00
00
00
00
00
00
00
00
00
ff
00
00
00
ff
00
01
01
00
01
00
00
fc
fd
00
fe
00
00
00
00
00
00
00
00
00
00
01
00
ff
00
00
00
fc
00
ff
00
ff
00
fa
01
00
01
00
00
00
fc
00
00
00
00
00
ff
00
00
fa
01
00
00
00
00
ff
00
00
00
fd
ff
00
00
00
00
00
00
00
00
00
00
ff
00
00
ff
00
00
fb
00
00
fa
fd
00
00
00
01
ff
01
00
00
ff
00
00
00
fe
fd
00
00
00
00
fe
00
00
fd
01
fc
00
00
00
00
00
00
00
fe
00
00
01
00
01
fd
00
00
00
fd
ff
01
01
fd
fc
00
00
ff
00
00
fe
00
00
00
00
00
ff
00
00
00
00
00
00
01
fa
fe
00
00
00
00
fe
fd
00
00
fc
01
00
00
ff
00
ff
fb
01
00
01
00
00
00
01
fc
fc
fd
00
00
01
00
00
00
01
00
01
00
00
00
fd
01
00
00
00
00
00
fe
00
00
00
00
00
00
00
fa
00
00
01
fa
fc
00
fb
fc
00
ff
ff
00
00
00
01
fc
00
00
00
00
fd
ff
00
00
00
fd
00
01
00
00
00
01
fe
00
fd
00
00
00
00
fa
00
fa
00
fd
fc
ff
00
00
00
01
00
01
00
00
00
00
ff
00
00
00
ff
00
fe
00
00
00
00
00
fb
00
ff
00
fe
00
00
00
00
ff
00
00
fe
ff
ff
fd
01
00
00
01
01
00
00
00
00
fe
00
ff
01
02
00
00
fd
00
ff
00
00
00
ff
00
01
00
fb
00
00
fe
00
00
00
00
00
00
fc
01
00
00
00
00
00
00
fc
00
00
00
fb
00
00
fb
00
00
fe
02
00
00
00
00
00
00
ff
01
fd
01
00
00
fe
fc
ff
00
00
01
01
00
00
00
00
01
ff
00
00
fe
00
00
00
00
00
01
ff
00
00
fd
00
00
00
00
00
01
01
00
02
fa
00
00
00
fe
00
fe
00
fe
00
00
00
ff
ff
00
00
00
00
fd
fe
00
00
00
00
00
00
ff
01
00
00
00
01
fe
fd
00
00
00
00
ff
00
00
00
fe
00
fd
00
00
00
00
00
00
00
00
00
00
00
00
00
00
00
fd
00
00
00
00
00
00
00
00
01
00
00
00
00
00
00
00
00
00
00
00
00
00
00
00
00
00
00
00
00
00
00
00
00
fe
fe
00
00
fc
00
00
ff
00
00
00
00
00
ff
00
ff
01
00
00
fc
00
fe
00
00
00
00
00
00
00
fe
00
fb
00
fe
00
00
00
00
00
00
00
00
00
00
01
00
00
00
00
00
00
00
00
00
00
00
00
00
fc
00
00
00
00
00
00
00
00
fe
00
00
00
00
00
01
00
01
fb
fd
00
00
00
00
fa
ff
00
00
00
00
00
00
00
ff
00
fe
00
00
00
00
01
00
fb
ff
fc
ff
00
00
fb
00
00
00
00
00
00
ff
00
ff
00
00
00
ff
fe
00
00
00
ff
00
00
00
00
00
00
00
00
00
00
00
00
ff
00
ff
00
00
fb
00
00
00
fe
01
00
00
00
00
00
00
00
00
fd
00
00
00
fb
fc
00
00
00
00
ff
00
00
00
00
fb
00
00
fc
00
00
00
00
00
00
00
00
01
fe
fc
00
01
00
00
ff
00
00
00
00
00
ff
00
fe
00
ff
00
ff
fd
00
00
00
00
00
00
00
fe
00
00
00
00
00
01
00
00
00
00
00
00
fd
00
00
00
fc
00
fd
00
ff
00
00
00
00
00
ff
ff
00
01
00
ff
00
00
00
00
00
00
00
00
00
00
00
01
00
00
00
fe
fe
ff
fd
00
fe
ff
fe
00
01
00
fd
01
16
f6
ea
01
e5
01
ff
ea
fe
e8
05
0e
15
f8
f0
d1
e7
d1
e4
e0
ea
fc
e2
ed
fb
0a
f9
de
c8
d9
e6
00
f1
c6
ca
df
d3
c6
d8
d7
12
d8
e3
f7
f7
ea
eb
fe
fa
d1
e6
00
e8
c8
e4
e2
d3
00
ec
04
09
e6
ee
fc
f5
ef
f1
05
05
d0
01
15
01
0c
05
f0
f7
15
15
d8
f3
fb
00
fb
f2
00
11
09
22
22
00
0f
51
01
00
f3
0c
f4
f9
1e
23
03
02
25
24
02
1d
f7
fb
f5
e2
eb
f5
0b
f0
00
00
06
0f
e1
f5
fd
ee
1f
ef
d2
eb
06
06
fc
02
04
e5
e0
c2
02
1e
4b
e1
e7
d8
f6
03
19
fd
01
04
f1
07
0f
09
40
f5
e2
f2
cb
c4
e2
f4
0f
19
27
13
01
f9
1d
f9
e6
e8
d2
c6
e2
d2
cd
f1
f6
12
17
fd
f6
f7
f1
fe
e2
f7
e3
e8
ca
d2
fc
e9
03
f1
0b
f9
11
fb
fa
d3
cf
ce
e4
cd
d6
00
fe
f2
f9
f4
fe
f3
dd
03
04
f9
10
03
0e
f4
f0
fb
ef
e4
e1
d2
f6
2c
33
0e
20
ed
00
fc
0a
f3
02
eb
d0
e5
30
40
41
29
fc
e7
e6
fb
f9
de
d1
e4
e9
08
31
40
35
ff
ee
f3
dc
d7
df
e1
c4
e9
ff
1d
1c
38
1b
ff
fc
dc
e3
d0
e6
f7
d0
19
ee
0d
32
56
10
0a
fe
fb
ef
e6
da
d8
e8
37
18
09
32
36
22
f7
01
f2
0e
0e
d7
ed
d0
1c
35
36
38
41
12
f2
10
1a
fa
eb
cb
ee
00
fe
1c
26
30
33
03
01
0c
11
ee
d5
cd
e4
10
fb
fc
fc
14
18
1f
fa
ff
1d
f9
d2
f6
ff
23
e1
e4
fd
08
11
06
08
ee
f2
02
dd
d8
f4
1e
ff
de
e0
dd
e8
fd
eb
e4
e5
db
f1
f1
e9
0d
ec
f4
e7
03
f9
1c
f3
f2
f5
04
ec
10
18
16
1a
fe
f9
01
eb
f4
fe
09
00
07
fe
fb
00
f5
11
f4
0d
f4
1d
00
07
00
07
0b
05
03
00
f5
12
f8
03
01
00
00
00
24
21
20
02
11
00
04
04
f2
16
00
ff
00
00
05
1f
0f
01
1b
07
dd
f5
0e
0e
00
fd
00
fe
00
00
00
00
16
05
fb
0f
10
10
00
ec
f6
00
00
00
01
11
07
01
fe
f8
fa
01
00
ff
00
00
12
00
00
08
03
01
f9
d9
fb
fc
00
fd
f8
03
13
0b
00
fb
00
00
f8
e8
d6
fe
f1
f9
00
00
06
00
00
fe
09
07
f5
f4
dc
d6
00
00
00
00
00
fc
00
ff
00
00
ee
f1
f1
d8
f4
00
00
00
06
01
02
00
01
00
ec
01
17
f1
dd
00
00
00
07
17
0b
07
00
00
e7
0c
ed
01
03
00
fc
00
00
02
00
01
02
fd
e6
12
15
fc
f0
f6
e9
00
fb
f9
00
00
00
00
ea
0c
01
f4
0d
0a
03
07
21
fa
12
ff
0b
e8
f3
05
fe
f7
11
09
00
ea
0c
00
ff
ed
04
e6
ed
0e
fd
04
0c
f5
e3
fd
36
30
27
07
06
0c
00
11
02
17
04
e7
f4
01
20
1a
23
28
0d
02
0e
15
2b
11
e6
e5
f3
0b
1b
11
15
28
09
04
ef
10
10
f2
dc
03
eb
10
15
18
18
2c
16
1b
07
08
10
ef
fa
e5
05
10
10
17
fc
0c
2f
12
0b
01
10
de
f3
ee
ec
22
0d
ff
ff
15
23
14
05
ee
e8
00
f5
df
e5
04
f0
e8
e7
0b
13
05
01
f0
f6
d8
f7
dd
df
0e
ed
ff
f3
ff
23
06
f0
ed
e6
d6
01
e1
dc
f0
e9
e3
ff
17
22
ff
f6
fb
ec
cf
ca
e7
e8
f3
09
ff
17
32
01
02
ef
eb
14
f9
e6
e6
01
db
0a
18
12
0d
f3
e5
f5
02
0c
09
f0
df
0e
f2
fe
06
06
08
fd
e4
ff
f7
e9
f8
00
03
ff
fe
f5
f6
fc
04
00
e7
ee
ee
05
05
ee
c5
ce
b2
d5
cd
e6
fb
f0
eb
f5
03
fd
dd
b4
bb
be
c5
ca
cb
cc
d4
d7
fb
fc
09
e7
af
b7
cf
dd
ba
d1
ba
a5
90
9c
ec
0a
fc
a7
9a
d2
f4
e4
e1
e9
cc
ca
b8
81
bb
e3
e1
b1
d1
07
13
ff
df
e0
e1
ed
15
d1
c1
ea
e6
f6
d4
08
0c
35
19
15
28
14
f4
fe
df
d3
03
db
ed
2d
1d
20
00
00
3e
1a
0a
fe
d7
db
e2
d7
ee
ff
2d
00
fc
ff
ff
12
f5
de
c7
b6
d6
e3
ef
06
f0
0e
00
03
22
f5
f8
d7
d2
de
17
07
f4
ef
fe
f8
e5
d4
f1
e8
d6
f0
f5
0a
1d
16
f2
de
dc
ca
be
bd
d3
02
fb
fd
13
24
20
18
04
f8
e3
9f
b2
9a
cd
08
10
26
16
23
03
f3
e9
1a
ec
d9
a1
a8
cb
09
12
16
15
e5
0b
1e
0e
e6
c8
c3
a0
aa
d6
dd
11
29
24
15
f9
10
fc
f6
eb
06
04
05
ee
e3
03
06
0c
26
1e
2d
04
08
f8
30
6a
47
22
f8
f5
25
30
20
f1
02
d5
df
22
3c
66
44
2f
08
e0
fa
10
13
cb
d0
ad
fa
24
3e
3d
2b
26
f9
d2
c4
c8
d0
c5
c7
d4
ea
ff
1c
0e
fc
0a
f8
fc
e1
d3
d9
d7
05
d6
f1
1b
0b
1a
f7
fd
0f
10
e7
e7
cf
13
14
1d
1e
15
2c
f6
12
25
31
0a
24
f9
f0
22
19
20
1b
3a
15
f9
1b
2c
45
34
14
1d
06
fe
f4
02
2f
30
35
0a
1a
20
41
1e
1e
ea
f8
0a
01
01
04
35
2f
08
14
30
1c
0e
d7
eb
17
08
ef
d6
d5
00
f6
f5
fa
ef
df
d0
df
df
11
03
11
05
dd
d5
cf
c9
d0
ef
e1
ca
f6
03
1e
09
13
0d
00
10
21
05
08
fc
02
f7
02
27
08
1c
06
19
22
10
02
00
03
00
00
fb
08
10
10
25
0a
09
02
fe
00
00
00
00
00
00
0c
00
02
15
15
00
00
00
ff
00
00
04
00
00
00
00
12
16
f7
02
fd
d6
e0
d4
00
00
ff
00
06
00
14
ff
1a
01
00
d8
d8
d4
ef
ea
f9
00
18
01
1d
13
16
01
00
e8
f6
ee
f4
e7
f3
02
2b
07
06
1e
26
00
00
00
00
fc
00
00
f6
00
0b
00
12
07
f1
fe
00
00
00
00
00
00
00
00
00
00
22
00
f6
fa
00
00
00
ee
00
f6
fe
03
00
01
e8
e4
fb
f3
00
00
00
00
00
00
00
fd
00
00
e3
05
07
f2
fe
00
00
00
ff
00
00
00
00
02
f9
fd
10
0c
00
09
1b
12
00
26
24
0e
01
00
15
08
f1
ff
0d
18
04
00
00
07
12
19
00
f3
e0
ff
04
11
01
f1
f1
00
01
00
00
00
00
00
18
03
19
1d
f7
eb
ff
10
1f
f4
04
06
0f
12
1e
10
19
16
0d
ff
d7
ba
bb
d0
ea
08
09
13
1c
18
18
0b
04
de
e7
b9
d2
f1
04
f6
f5
f6
20
fd
fd
f7
f1
ce
e6
bd
c8
fe
f7
f8
fb
04
01
f9
e9
05
fb
c6
c6
d4
dc
e7
f4
1e
18
11
24
13
f8
0b
08
e1
e2
e0
e7
fa
08
2c
33
10
27
fc
12
0e
00
0b
f8
03
ed
04
f6
17
16
19
15
08
f5
f6
07
18
fe
ff
fe
f9
f6
21
02
ef
1b
e6
e2
ff
19
e3
d5
c2
d3
ea
ef
f2
e8
04
e2
fd
e1
ed
f2
f2
ec
ed
d9
e3
eb
0d
f8
ef
ed
1e
f9
06
ed
0a
df
cc
bd
e5
15
07
08
0a
1f
09
fc
fc
f2
03
05
d6
e5
13
27
22
1d
04
04
fc
0d
24
16
20
16
e3
ff
39
4d
32
21
04
05
02
f4
03
02
08
fc
f0
04
e9
f1
f6
f1
02
f8
00
00
00
00
00
00
00
00
00
00
00
00
00
00
00
00
00
00
00
00
00
00
00
00
00
00
00
00
00
00
00
00
00
00
00
00
00
00
00
00
00
00
00
00
00
00
00
00
00
00
00
00
00
00
00
00
00
00
00
00
00
00
00
00
00
00
00
00
00
00
00
00
00
00
00
00
00
00
00
00
00
00
00
00
00
00
00
00
00
00
00
00
00
00
00
00
00
00
00
00
00
00
00
00
00
00
00
00
00
00
00
00
00
00
00
00
00
00
00
00
00
00
00
00
00
00
00
00
00
00
00
00
00
00
00
00
00
00
00
00
00
00
00
00
00
00
00
00
00
00
00
00
00
00
00
00
00
00
00
00
00
00
00
00
00
00
00
00
00
00
00
00
00
00
00
00
00
00
00
00
00
00
00
00
00
00
00
00
00
00
00
00
00
00
00
00
00
00
00
00
00
00
00
00
00
00
00
00
00
00
00
00
00
00
00
00
00
00
00
00
00
00
00
00
00
00
00
00
00
00
00
00
00
00
00
00
00
00
00
00
00
00
00
00
00
00
00
00
00
00
00
00
00
00
00
00
00
00
00
00
00
00
00
00
00
00
00
00
00
00
00
00
00
00
00
00
00
00
00
00
00
00
00
00
00
00
00
00
00
00
00
00
00
00
00
00
00
00
00
00
00
00
00
00
00
00
00
00
00
00
00
00
00
00
00
00
00
00
00
00
00
00
00
00
00
00
00
00
00
ff
00
00
00
00
00
00
00
00
00
00
00
00
00
00
00
00
00
00
00
00
00
00
00
00
00
00
00
ff
00
00
00
00
00
00
00
00
00
00
00
ff
ff
ff
ff
00
00
00
00
00
00
00
00
00
00
00
00
00
00
00
00
00
00
00
00
00
00
00
00
00
00
00
00
00
00
00
00
00
00
00
00
00
00
00
00
00
00
00
00
00
00
00
00
00
00
00
00
00
00
00
00
00
00
00
00
00
00
00
00
00
00
00
00
00
00
00
00
00
00
00
00
00
00
00
00
00
00
00
00
00
00
00
00
00
00
00
00
00
00
00
00
00
00
00
00
00
00
00
00
00
00
00
00
00
00
00
00
00
00
00
00
00
00
00
00
00
00
00
00
00
00
00
00
00
00
00
00
00
00
00
00
00
00
00
00
00
00
00
00
00
00
00
00
00
00
00
00
00
00
00
00
00
00
00
00
00
00
00
00
00
00
00
00
00
00
00
00
00
00
00
00
00
00
00
00
00
00
00
00
00
00
00
00
00
00
00
00
00
00
00
00
00
00
00
00
00
00
00
00
00
00
00
00
00
00
00
00
00
00
00
00
ff
00
00
00
00
00
00
00
ff
ff
00
fd
00
ff
ff
00
00
00
00
00
00
00
00
00
00
ff
ff
00
00
00
00
00
00
00
00
00
00
00
00
00
00
01
00
00
00
00
00
00
00
00
00
00
00
00
00
ff
00
00
00
00
00
00
00
00
00
00
00
00
00
00
00
00
00
00
00
00
00
00
00
00
00
00
00
ff
00
00
00
00
00
00
00
00
00
00
00
00
00
ff
00
00
00
00
00
00
00
00
00
00
00
00
00
ff
00
00
00
00
00
00
00
00
00
00
00
ff
00
ff
ff
00
00
00
00
00
00
00
00
00
00
00
ff
ff
00
00
00
00
00
00
00
00
00
00
00
ff
ff
00
00
00
00
00
00
00
00
00
00
00
00
00
fe
ff
00
00
00
00
00
00
00
00
00
00
00
ff
00
01
02
01
01
00
00
00
00
00
00
00
ff
00
fd
00
00
00
00
00
fd
00
00
00
00
00
00
fe
00
00
00
00
00
00
00
00
00
00
00
00
00
fe
00
00
00
00
00
00
00
00
00
00
00
00
00
00
00
00
00
00
00
00
00
00
00
00
00
00
00
00
00
ff
00
00
00
00
00
00
00
00
00
00
00
00
00
00
00
00
00
00
00
00
00
ff
00
00
00
00
00
00
00
00
00
00
00
00
00
ff
00
00
00
00
00
00
00
00
00
00
00
00
00
00
00
00
00
00
00
00
00
00
00
00
00
00
00
00
00
00
00
00
00
00
00
00
00
00
00
00
ff
ff
00
00
00
00
ff
00
00
00
00
00
00
00
00
00
00
00
00
ff
00
ff
01
00
00
00
00
00
00
00
00
00
00
00
00
00
00
ff
00
00
fe
fe
00
00
00
ff
00
00
00
00
00
00
00
00
00
00
00
00
00
00
00
ff
00
00
00
00
00
00
00
00
00
00
00
00
00
ff
00
00
00
00
00
00
00
00
00
00
00
00
00
ff
00
00
00
00
00
00
00
00
00
00
00
00
00
00
00
00
00
00
00
00
00
00
00
00
00
00
00
00
00
00
00
00
00
00
00
00
00
ff
00
00
00
00
00
00
00
00
00
00
00
00
00
fd
00
00
00
00
00
00
00
00
00
00
00
00
00
00
00
00
00
00
00
00
00
00
00
00
00
00
00
00
00
ff
00
00
00
00
00
00
00
00
00
fe
00
fd
00
00
00
00
00
00
00
00
00
00
00
00
00
fe
00
00
00
00
00
00
00
00
ff
00
00
00
00
00
00
00
00
00
00
00
00
00
00
00
00
fd
00
00
00
ff
00
00
00
00
00
00
00
00
00
00
00
00
00
00
00
00
00
00
00
00
00
00
00
00
00
00
00
00
00
00
00
ff
00
00
00
00
ff
00
00
00
00
00
00
00
00
00
ff
00
ff
00
00
00
00
00
00
00
00
00
00
00
00
00
00
ff
00
00
00
00
00
01
00
ff
00
fd
fe
00
00
00
ff
00
00
00
00
fe
00
00
00
00
00
fd
00
00
00
00
00
00
00
00
ff
00
00
00
00
00
01
00
00
00
00
00
00
00
00
01
ff
00
00
00
fd
00
00
00
00
00
00
00
ff
00
00
01
00
00
00
00
00
00
00
00
00
00
00
00
00
fd
00
00
00
00
00
00
00
00
00
00
fe
ff
00
00
01
00
00
00
00
00
00
00
00
00
ff
00
00
00
00
01
00
00
00
00
00
00
00
00
00
00
00
00
00
00
00
00
00
00
00
00
00
00
00
00
00
00
00
00
00
00
00
00
00
00
00
00
ff
00
00
00
fc
00
00
00
00
00
00
00
00
00
ff
00
00
00
00
ff
00
00
00
00
00
00
00
00
00
01
00
fc
ff
00
00
00
00
00
00
00
00
00
00
00
fe
00
00
00
00
00
00
00
00
00
00
ff
00
fe
00
00
00
00
00
00
00
00
00
00
00
00
00
00
00
ff
00
00
00
fe
00
00
00
ff
ff
00
00
00
00
01
00
01
00
00
00
00
00
00
ff
00
01
00
00
00
fe
00
00
00
00
00
00
00
ff
fd
00
00
00
00
00
00
00
00
00
00
00
00
00
00
01
01
00
ff
fd
00
00
00
00
00
00
00
00
fe
00
00
01
00
00
fe
fd
00
00
00
00
00
00
00
00
01
00
00
00
00
00
00
00
00
00
00
00
00
00
00
00
00
00
00
00
00
00
00
00
00
00
ff
ff
fd
fe
00
00
00
00
00
00
00
00
00
00
00
ff
00
00
00
fb
00
01
ff
ff
00
ff
00
ff
01
00
00
00
01
0f
04
08
f5
04
02
fa
f0
f8
10
f7
fc
f8
f9
f3
e6
dd
e5
f1
e6
d7
b4
fe
02
11
12
07
11
da
d2
ba
d4
cf
da
d2
cf
dc
c7
ec
ed
06
f3
e8
be
c6
db
e6
db
e3
e6
e2
a8
e7
e6
07
fa
b9
a1
c5
da
da
e0
f4
e9
ff
eb
da
fa
f2
f6
ba
f5
16
ed
fe
e3
f6
fa
dd
0b
ec
e4
00
d8
f2
d8
07
01
10
0d
0c
05
26
06
02
00
e4
e2
e6
da
04
24
1e
09
00
2b
32
fd
ea
db
f4
03
fa
fe
00
0d
18
00
ff
fc
21
0f
01
c5
d5
03
f3
00
f3
04
fa
12
f6
08
12
1b
f3
e6
f8
ec
ce
e0
c5
da
f5
eb
f6
03
0e
f4
fd
0d
09
f7
f7
e5
ce
d8
f2
dd
b7
af
bb
bd
dd
26
2d
30
34
21
1e
29
e8
e1
c9
be
ce
ce
ca
ef
21
d4
e9
e9
11
f2
c1
c9
ce
e8
08
ff
17
f9
ff
18
08
03
f2
d9
e0
c0
c0
e3
17
07
0e
09
06
12
05
00
f3
00
04
0f
ea
f9
04
01
09
05
f7
33
32
10
fa
0f
2a
3a
21
0d
00
0e
fb
fa
df
2b
12
f2
f8
18
3e
37
23
1b
04
eb
e8
de
ef
e1
da
c3
e0
07
15
1f
11
18
ff
dc
cb
d8
e3
d8
b7
da
cd
e7
f2
fe
ed
fa
f1
f8
f5
f2
c4
e1
cd
e0
eb
fd
12
fa
01
f8
15
05
05
fd
e4
ef
de
f6
e4
0b
fb
fa
14
25
2b
0b
11
f8
1c
03
e9
f3
ff
1c
22
ed
04
1c
41
38
12
f9
09
08
f1
01
07
32
22
03
ee
17
31
30
19
fe
f9
ee
eb
e0
f7
23
10
0d
f3
1c
3e
0f
00
0e
11
f2
dd
d1
e8
fd
e8
08
e2
f2
06
f4
07
04
10
fc
07
fa
f3
f6
f4
dd
dd
e3
ef
e6
e3
02
1d
07
0e
10
10
08
1c
fb
16
07
02
f4
fa
ff
f5
f8
f3
06
ea
03
fc
00
08
00
ff
01
00
02
0c
f0
03
f9
f2
00
08
04
00
07
0f
00
16
01
13
fe
f2
f8
08
00
02
00
0d
0f
10
0e
00
00
14
e5
dc
01
00
00
fc
fc
07
05
fc
00
00
01
eb
e5
06
06
00
f3
ea
00
ff
00
f7
fe
00
00
fb
0f
17
12
13
00
f2
fc
00
fe
00
00
0c
00
13
ed
07
1a
00
00
00
00
00
fa
fb
00
00
00
f3
fa
0a
1b
00
01
00
00
00
00
fd
00
f7
00
ed
fb
11
00
00
00
f2
00
00
fb
f5
f9
00
fb
f5
fc
f3
fe
ff
00
fe
00
00
fc
f3
fe
00
00
df
fb
dc
d3
ff
00
00
04
00
00
fb
00
ee
00
06
0f
e9
f9
f2
01
1b
11
00
00
00
00
00
ff
05
00
f4
04
2e
14
0a
01
00
00
00
00
00
00
e3
03
0c
eb
fd
e4
e8
fc
00
eb
fa
00
00
ff
05
1c
0f
00
1a
1f
1e
12
04
04
18
08
24
0e
27
fc
ff
e3
f6
e6
f1
fb
ef
f0
0f
21
19
12
25
02
e9
ee
01
0c
ed
01
1c
22
0e
18
08
f1
01
fe
fa
1d
00
08
f1
ec
13
fe
10
fa
1d
fa
0a
fb
0b
07
0c
ed
ea
03
f6
eb
f5
17
12
06
fd
04
08
2c
1c
fd
13
f6
f5
04
fa
22
18
09
07
12
19
37
23
10
23
10
ec
f8
0c
05
f7
13
1c
f1
0c
15
03
1a
1a
10
fa
ee
e2
fa
fc
f2
eb
11
12
23
fa
f2
f0
ee
db
c8
e8
f7
06
fd
07
fe
f0
06
f0
f4
dc
ef
e9
c7
f2
f8
ec
03
fa
fc
f1
dd
f8
d1
cc
db
dc
ce
f6
e5
fa
08
fe
fc
06
06
f9
11
f1
e3
df
da
e4
e5
16
17
f9
0e
15
2a
24
3e
23
04
f0
0b
10
19
f2
02
fa
0d
07
01
ec
e3
cd
eb
fb
f5
e2
17
f1
ff
03
00
00
02
00
00
00
00
fb
00
00
00
ff
01
00
00
fc
00
00
ff
ff
00
00
00
01
00
fb
01
00
00
01
fb
fc
00
00
00
fe
ff
00
fe
ff
00
00
00
00
00
00
00
00
00
00
00
00
00
00
00
00
00
ff
00
00
00
00
00
fc
00
fc
ff
00
00
ff
01
fe
00
00
fe
00
00
00
fc
00
00
00
00
00
00
00
00
00
00
ff
00
fd
00
00
00
01
00
00
00
00
00
ff
00
00
00
00
00
00
00
ff
ff
00
00
00
fe
00
00
00
00
00
00
00
00
00
00
fd
01
00
00
00
00
00
ff
ff
01
00
00
01
00
ff
00
00
fe
fe
00
00
00
00
ff
00
00
00
00
00
00
00
fe
00
00
00
00
fe
ff
00
fb
00
01
00
00
00
ff
ff
ff
ff
ff
01
00
00
fe
ff
00
00
00
00
ff
00
00
01
00
fd
00
00
fc
00
fe
fe
ff
00
00
00
00
00
00
00
00
00
00
00
00
00
00
00
00
ff
00
00
01
00
01
00
fd
00
00
00
00
01
ff
01
00
ff
00
00
00
00
ff
00
00
ff
00
00
00
00
00
01
00
01
00
fd
00
01
00
01
fe
fe
fd
00
00
00
00
01
00
fa
00
00
00
00
ff
00
00
00
fe
00
fd
00
00
ff
00
00
00
00
00
00
00
ff
fb
00
ff
00
00
00
00
00
00
00
ff
00
00
00
00
00
00
00
01
00
00
fe
00
00
00
00
00
fd
fe
00
00
00
00
00
00
00
ff
00
00
01
00
01
01
fd
00
00
fe
00
fc
fe
ff
00
00
00
00
00
00
00
00
00
00
00
00
01
01
00
00
00
00
00
ff
00
fe
00
00
00
00
00
00
00
00
ff
00
fc
00
01
00
ff
fb
fa
fd
00
01
fd
00
00
00
00
00
01
01
00
fd
ff
00
00
00
00
fc
00
fd
fb
00
00
00
00
01
00
00
00
fc
00
fb
fe
00
01
00
fd
00
00
00
ff
00
fb
00
ff
fc
ff
ff
fe
00
00
fe
00
00
00
fc
00
00
fe
00
01
00
00
00
00
00
00
00
01
fc
00
00
ff
00
01
00
01
00
00
00
00
fe
00
ff
00
00
00
00
00
01
00
00
00
00
ff
00
ff
01
00
00
00
00
fe
00
00
fd
00
00
00
00
00
00
00
00
00
00
01
00
00
00
00
00
00
00
00
ff
00
ff
fe
00
00
00
00
00
00
00
00
00
fe
00
00
ff
00
00
fe
00
00
00
00
00
00
00
00
00
ff
fb
00
fc
00
00
00
fe
00
00
00
00
00
ff
fd
00
00
00
00
00
00
ff
00
00
00
00
00
00
00
00
00
fa
00
00
00
00
00
00
00
00
00
00
00
00
00
00
00
00
00
fd
00
00
00
00
fe
00
00
00
00
01
fc
01
00
00
fd
ff
00
00
00
00
00
00
00
00
00
00
fe
00
ff
00
00
00
00
fe
00
00
fe
00
00
00
00
00
ff
00
00
00
00
00
00
00
00
fd
00
00
00
ff
ff
00
fd
00
ff
01
fd
fc
fd
00
00
00
00
00
00
00
00
00
00
00
00
00
ff
01
fe
00
fe
00
00
00
00
00
00
ff
00
00
00
ff
fc
00
00
00
00
00
00
00
00
00
00
00
fb
fd
00
00
00
00
00
00
00
ff
01
01
00
01
02
fe
fe
00
00
00
00
00
00
00
00
00
00
00
00
02
fd
00
fe
00
00
00
00
00
00
00
00
00
00
ff
00
fc
00
00
00
00
00
ff
00
00
00
00
00
00
00
ff
00
00
00
00
00
00
00
01
00
00
00
00
00
00
00
00
00
00
00
00
00
ff
00
00
00
00
00
fc
fd
00
ff
00
00
00
00
00
00
00
00
01
00
00
fc
00
00
00
00
01
00
00
00
ff
00
01
00
00
fc
01
00
00
00
ff
00
00
00
00
00
00
00
00
00
00
00
00
ff
00
00
00
00
00
00
00
00
00
00
00
00
00
00
00
00
00
00
00
00
00
00
00
00
00
00
00
fd
00
00
00
00
00
ff
00
00
00
00
00
fe
01
00
00
00
ff
00
00
00
00
00
ff
00
fe
00
00
00
00
00
fd
00
00
00
00
00
00
00
00
01
00
00
00
00
01
00
00
00
00
00
00
ff
00
00
00
00
00
00
ff
00
00
00
00
00
00
00
00
00
ff
00
00
00
00
ff
00
00
00
00
00
00
00
00
00
00
00
00
00
00
fe
00
ff
00
01
00
00
00
fe
00
ff
fc
ff
00
00
fe
00
00
00
00
01
00
00
00
ff
00
ff
01
ff
00
00
00
00
00
00
00
00
00
ff
00
00
ff
00
ff
00
00
00
ff
00
fd
00
00
00
00
00
00
00
00
00
00
ff
00
00
00
00
00
ff
00
00
00
00
00
00
00
00
00
00
00
00
00
00
00
00
00
00
00
00
00
00
00
00
00
00
00
fe
00
00
ff
00
00
00
ff
00
00
00
00
00
00
00
ff
00
00
fe
00
00
00
00
00
00
fe
00
00
00
00
00
00
00
00
00
00
00
00
00
00
00
00
00
fd
00
00
00
00
00
00
00
00
00
00
00
00
fd
00
00
00
00
00
00
00
00
00
00
00
00
00
00
fe
00
00
00
00
00
00
00
00
ff
00
00
01
00
00
00
00
00
00
00
00
00
00
00
fd
00
00
00
00
fd
00
00
00
00
ff
00
00
fc
ff
00
00
00
00
00
00
00
00
00
00
00
00
00
00
00
00
00
00
00
00
00
00
00
00
00
01
ff
ff
fe
00
00
ff
00
00
00
00
00
00
00
00
00
00
00
00
00
00
01
00
00
00
00
00
01
01
ff
00
00
00
00
00
fe
00
00
01
01
fe
00
00
ff
00
00
00
00
00
00
00
00
00
00
00
00
00
00
00
00
00
00
00
00
ff
00
00
ff
fe
fe
00
ff
00
00
00
00
00
00
00
fe
00
00
01
00
00
00
00
00
00
00
00
00
00
00
00
00
00
00
00
00
00
00
00
00
ff
00
00
00
fc
00
00
00
00
00
00
00
00
00
00
00
00
fd
00
00
fd
00
00
00
00
00
00
00
00
00
00
00
fd
fd
fe
00
00
00
00
00
00
00
00
00
00
00
ff
00
00
00
00
00
00
00
00
00
00
00
01
ff
00
00
fd
00
00
00
00
00
00
00
00
00
00
00
fd
00
00
00
00
00
00
00
00
00
00
00
00
00
fc
00
00
fd
00
00
00
00
00
00
00
00
00
00
00
00
fb
fb
01
00
00
00
00
ff
00
fc
00
fd
00
00
00
00
fd
ff
00
00
00
00
01
ff
00
00
00
00
00
00
00
00
00
00
00
00
00
00
00
ff
00
00
00
01
00
00
00
00
00
00
00
00
00
00
00
00
00
00
00
00
00
00
00
00
00
00
00
00
00
00
00
00
00
00
00
00
00
00
ff
00
00
00
00
00
00
00
00
00
00
00
00
00
00
00
00
00
00
00
00
00
00
00
00
00
00
00
00
00
ff
00
ff
01
00
ff
00
00
00
00
00
00
00
00
00
fe
00
fc
00
00
00
00
00
00
00
00
00
00
00
00
00
fd
00
00
00
00
00
00
00
00
00
00
00
00
00
00
fe
ff
00
00
00
00
00
00
00
00
00
00
fe
fe
00
00
00
00
00
00
00
00
00
00
00
00
00
00
ff
00
00
00
00
00
00
00
00
00
00
fd
00
